/**
  ******************************************************************************
  * @file    bms_model_data_params.c
  * @author  AST Embedded Analytics Research Platform
  * @date    2026-07-04T02:09:24+0800
  * @brief   AI Tool Automatic Code Generator for Embedded NN computing
  ******************************************************************************
  * Copyright (c) 2026 STMicroelectronics.
  * All rights reserved.
  *
  * This software is licensed under terms that can be found in the LICENSE file
  * in the root directory of this software component.
  * If no LICENSE file comes with this software, it is provided AS-IS.
  ******************************************************************************
  */

#include "bms_model_data_params.h"


/**  Activations Section  ****************************************************/
ai_handle g_bms_model_activations_table[1 + 2] = {
  AI_HANDLE_PTR(AI_MAGIC_MARKER),
  AI_HANDLE_PTR(NULL),
  AI_HANDLE_PTR(AI_MAGIC_MARKER),
};




/**  Weights Section  ********************************************************/
AI_ALIGNED(32)
const ai_u64 s_bms_model_weights_array_u64[19683] = {
  0x3f40abfaffffffffU, 0x3f7472083f8b5d4aU, 0x3f3cb7523f5065ddU, 0x3f85e9573f588a4dU,
  0x3f6a23923f85b48dU, 0x3f8d95ce3f52b1d3U, 0x3f81750e3f596c8cU, 0x3f7cafca3f64cd67U,
  0x3f8a75f23f5678a4U, 0x3f29a5733f46326cU, 0x3f6b83613f5ca045U, 0x3f69a8f03f4879b1U,
  0x3f537c143f65f9daU, 0x3f8697a03f649edcU, 0x3f8924103f35c4beU, 0x3f2f13bd3f47ca54U,
  0x3f90be4c3f5900ebU, 0x3f6e3b993f99bd95U, 0x3f9001c43f868e65U, 0x3f8422b63f46fc99U,
  0x3f83cc433f6905b7U, 0x3f8973bf3f8471ccU, 0x3f479a343f6d4096U, 0x3f6231c23f82487eU,
  0x3f5c07ed3f90aea4U, 0x3f9710263f7a4554U, 0x3f4c201a3f798817U, 0x3f5a914c3f82317eU,
  0x3f2ebe713fa4f8fbU, 0x3f522f4f3f7f8d95U, 0x3f90e81e3f8c11ebU, 0x3f728c903f7703bdU,
  0x3f4c54573f8dac82U, 0x3f0609d63f928c01U, 0x3f34110c3f81a3a8U, 0x3f6ff3de3f8489e7U,
  0x3f61d79e3f6d265fU, 0x3f69f5ff3f6dc77dU, 0x3f551d0d3f5dd6d5U, 0x3f5100733f557c5cU,
  0x3f861b823f4f6554U, 0x3f6a269d3f944347U, 0x3f71f98f3f4ff125U, 0x3f559bf83f68a1c1U,
  0x3f41f6fe3f48206fU, 0x3f5688533f2b50baU, 0x3f715efc3f4bbf6fU, 0x3f71cd553f44b054U,
  0x3f9619b23f4da218U, 0x3f99aef83fa8869bU, 0x3f4a84da3f9b8377U, 0x3fabe6e93f50b6a6U,
  0x3f67cb7e3f3e8757U, 0x3f8044963f569313U, 0x3f89f8b63f80497eU, 0x3f318a103f8636eeU,
  0x3f69bde73f6fac74U, 0x3f97a5153f84e711U, 0x3f89ab5c3f52c1beU, 0x3f6233e33f708753U,
  0x3fa34c893f6881cbU, 0x3f8da4f33f6ad4b5U, 0x3f8123053f4fbf8cU, 0x3f61dcc23f4db4a9U,
  0x3f52e0303f9364c0U, 0x3f4562133f57cb24U, 0x3f3cbb423f60866cU, 0x3f7b75a73f24699aU,
  0x3f7c06233f7b2060U, 0x3f8771243f77b576U, 0x3f6b726f3f6823efU, 0x3f7475883f9c3d1dU,
  0x3f8c247f3f442364U, 0x3f4888ad3f9a4c0aU, 0x3f6e14a03f8dbc8fU, 0x3f0601863f8667efU,
  0x3f8624b13f571c9dU, 0x3f5cb96a3f4df6eaU, 0x3f6856763f51abd0U, 0x3f656d863f466422U,
  0x3f6b360d3f893a6bU, 0x3f8811513f7a6613U, 0x3f8cfc3d3f5a7fdfU, 0x3f6925e83f523155U,
  0x3f6ed3863f9a43e3U, 0x3f85f3b73fb9422bU, 0x3f8af4aa3f880d5fU, 0x3f7a546d3f16ede7U,
  0x3f9d58733f743fa8U, 0x3f5054123f592345U, 0x3f7b33583f63fe07U, 0x3f70ded23f3d1fb5U,
  0x3f731a943f58ac0aU, 0x3f4feba73f9611a0U, 0x3f84803d3f82bed3U, 0x3f8810ec3f887f87U,
  0x3f4aa03b3f68ba0eU, 0x3f3e61f53f828d7dU, 0x3f5b09943f5c93e3U, 0x3f5bbb8b3f9d3f9eU,
  0x3f722edf3f721470U, 0x3f6483023f787ceeU, 0x3f7945083f4e99adU, 0x3f94ba7d3f8165ebU,
  0x3f68d7923f712a67U, 0x3f4486a43f91dc29U, 0x3f4a57873f4f1e3dU, 0x3f3f2e163f86a3d1U,
  0x3f962ced3f532d62U, 0x3f8a1dd33f374016U, 0x3f56d4053f0d01b6U, 0x3f54bf0f3f87589dU,
  0x3f76e6bb3f7cd59eU, 0x3f92fd523f5eb4cdU, 0x3f81615c3fa56b5cU, 0x3f926ab53f824499U,
  0x3f6d44703f81f1c9U, 0x3f6d5b9b3f44f5c6U, 0x3f84b7633f81323bU, 0x3f86f6d03f6f3541U,
  0x3f2790e33fac462aU, 0x3f6fac4a3f9b5e50U, 0x3f8ddb293f87e003U, 0x3f9795ba3f8a7037U,
  0x3f975ad73f5d9baeU, 0x3f553fae3f4cd196U, 0x3f5d753b3f639cabU, 0x3f8084403f5faf51U,
  0x3f7e4ccb3f507546U, 0x3f69fd783f9ba4a7U, 0x3fa398533f7c2ebdU, 0x3fa6d2e53f67bb7cU,
  0x3f674f553f5cb3a7U, 0x3f95b6843fa0f6bfU, 0x3f81e31e3f54b82bU, 0x3f86fa723f7d5e65U,
  0x3f7360b23f4ff862U, 0x3f726de63f939ffdU, 0x3f59078d3f787ae3U, 0x3f61b8203f66e46cU,
  0x3f8d14373f6e2c61U, 0x3f7c87213f742d96U, 0x3f5e90ff3f674efdU, 0x3f61712f3f9a0862U,
  0x3f6045373f986f52U, 0x3f99d98b3fa0db11U, 0x3f8013173f693eccU, 0x3f78f0a63f5deb9aU,
  0x3f5356573f9c8ba1U, 0x3f886c763f81f364U, 0x3f5a7ad73f5454f4U, 0x3f95bf643f86a2c5U,
  0x3faccb5a3f832fafU, 0x3f8689153f743256U, 0x3f8f8b713f6dff93U, 0x3f86fcff3f8cd466U,
  0x3f55c7c83faf0dfcU, 0x3f7b50743f56c965U, 0x3f97c4ef3f5f5e74U, 0x3f6fb3093f697a49U,
  0x3f898d023f9fc50cU, 0x3f7bfa093fa89d66U, 0x3f8556b23f947f9fU, 0x3f7760ee3f8de731U,
  0x3f85a4a33f75c041U, 0x3f863bd43f9f4f08U, 0x3f734ce13f84510bU, 0x3f810c6c3f848e53U,
  0x3f8c90d83f83349dU, 0x3f60a4223f7b7dddU, 0x3f998d823f9495d5U, 0x3f783f6c3f895578U,
  0x3f60c4393f5ac217U, 0x3f84e0f93f8f1b90U, 0x3f4ceac43f9f674dU, 0x3f6bfda83f7101e3U,
  0x3f5f0b9b3fa2a85dU, 0x3f4069dc3f6adac6U, 0x3fa07e503fa4eb63U, 0x3f63391d3f586a24U,
  0x3fa857023f9fcf3aU, 0x3fbfac023fa2a748U, 0x3f21dec53f8eb873U, 0x3f7011bf3f4640a0U,
  0x3f3ad0c03f9cf013U, 0x3fb507ad3f89eee0U, 0x3f38550d3f2b56ccU, 0x3f3da6df3f9624d0U,
  0x3f4cec0d3f541e2eU, 0x3f7ee8143f39c385U, 0x3f62f7573fc0be65U, 0x3f9eb8c43fa7bc1cU,
  0xbd7c9e043f5b38a0U, 0xbf2112be3e5b8cc9U, 0x3ef696f33ed8dc62U, 0x3ea9e6db3ed964aaU,
  0xbf04848b3f00df21U, 0xbe60dd3cbe344ed6U, 0xbf362c563ef77316U, 0xbdecfe123bd1f4a0U,
  0xbf047284bf0a4c0dU, 0x3f25db49be8f8404U, 0x3f0cb10bbeaad841U, 0x3f4882dbbd97edcaU,
  0xbec8bb753f26b4e3U, 0x3f2f443cbf4a7ed9U, 0x3f351b4ebf62d14aU, 0x3f46f3d7be169f53U,
  0xbd2ff9aa3c6b62d4U, 0x3bfda805bd4ee974U, 0xbdb70b71bcb3adc8U, 0xbdb3e187bc18c2c7U,
  0x3d71e355bc88990dU, 0xbd773cebbd5e2de2U, 0x3c0d0c57bd8d1f78U, 0xbcb59ba3bd71bd67U,
  0xbda2eab23dbf578fU, 0xbd437054be12ff37U, 0xbd2db075bd86f099U, 0xbd0e2da1bcff1542U,
  0xbd9361efbd662480U, 0xbe0483223d73fbaeU, 0xbdb714b93b7cdec1U, 0xbd2fc6c9bd825901U,
  0x3e66177dbd8afd2cU, 0xbdebd5b5be209fd3U, 0xbe1d3205bd257496U, 0xbd54f5d43e23395cU,
  0xbcaed51bbcb91e04U, 0xbe86204f3e892673U, 0xbea43bd5bcb62398U, 0x3e85325b3d54f28dU,
  0xbe42bbe73d093968U, 0x3e4dc70e3e4b7cebU, 0x3c8f59703da0840eU, 0x3b8a3789be4c6f4fU,
  0x3ceb1a373e8cdd71U, 0x3e937e9ebea6d459U, 0x3e37d30a3cdfbf79U, 0xbe86a60abe656db8U,
  0x3e51e46fbd97a4fbU, 0x3ded9ea73d95476fU, 0x3de9f9cebe843e5bU, 0x3d907aea3d702009U,
  0xbd89927abc96faecU, 0x3bba0ff43de8710eU, 0x3dcbcb6d3d3acfd0U, 0xbe04fc553dfa6235U,
  0xbcea441cbe72614dU, 0xbe0c07efbc10b8c9U, 0x3d4ac77bbe53c61eU, 0x3d8be2323e8f767fU,
  0xbe9dc8513d171caaU, 0x3d714684bdd15d8aU, 0xbd9fca28bd92f9f4U, 0xbdc039f8bd8e1878U,
  0xbd44ab9a3e82d795U, 0x3dc950cbbe875160U, 0x3d70ab18bbfff1bfU, 0x3dda0715be128432U,
  0x3e215e543e30915dU, 0x3d9acb1bbdbc28a5U, 0xbd698c08bd65b87eU, 0x3d381ffebcb16d68U,
  0x3c6751d9be5f4ef0U, 0xbeb0a8bb3e0839b7U, 0x3ce0018e3e5de1e1U, 0xbd96bdc33e2e4343U,
  0x3e984e38bd8999e3U, 0xbe52195bbe75c73cU, 0x3e94ceffbdc102d2U, 0x3db232ce3e0c6a75U,
  0x3de1aafbbe5668b1U, 0x3df54c2f3d0a66dfU, 0x3c861b4ebb6abf14U, 0xbd81ce283da75093U,
  0x3c6b7640bdc9cf85U, 0xbe0242453c8d3176U, 0x3dcf84f43ca70e75U, 0xbd0c70653dc77457U,
  0x3d6da90fbdee7d6eU, 0xbdffae54bd4796d1U, 0x3d068b933dde45d5U, 0x3b189fc53c48c69aU,
  0x3d18d64f3ca28f1eU, 0xbb6ca5a53d8e0cd6U, 0x3cb5a4ddbd1a117aU, 0x3c7896bc3d087d89U,
  0x3d0000003d96ba23U, 0x3a83126f00000000U, 0x3f8000003f800000U, 0x3f8000003f800000U,
  0x3f8000003f800000U, 0x3f8000003f800000U, 0x3f8000003f800000U, 0x3f8000003f800000U,
  0x3f8000003f800000U, 0x3f8000003f800000U, 0x3f8000003f800000U, 0x3f8000003f800000U,
  0x3f8000003f800000U, 0x3f8000003f800000U, 0x3f8000003f800000U, 0x3f8000003f800000U,
  0x3f8000003f800000U, 0x3f8000003f800000U, 0xbe765b9fbe48cca2U, 0xbd3bbfb7beb67985U,
  0xbe8368a7bd26f8b2U, 0xbc4e6438be563796U, 0x3d01e7babcb0f182U, 0xbd2948103d29c0a8U,
  0xbe981b50bf02cd88U, 0x3ca11f18bd4d9334U, 0xbdfd4d9ebeadf7edU, 0xbecad3213d8f777cU,
  0x3cfc42f8bebe2443U, 0xbe8fd821be78d176U, 0xbe98f645be81008bU, 0x3d320490bde2deb7U,
  0xbda1e96bbe438900U, 0xbe7855d8bd17da3fU, 0xbe41b2053dfb5edaU, 0xbda6ce76bdb12bb4U,
  0x3da5e3b039ef51cbU, 0xbc8277debe110b23U, 0x3dc72a123db6489aU, 0xbde3c01e3d53f5bfU,
  0x3e369ce13d3f4c63U, 0x3ddbd3b6bd95e9e3U, 0xbe700b77beb68c09U, 0xbe4dfea63d18f072U,
  0x3c091ec5bd2c60b3U, 0x3d870b073d4751beU, 0xbde4f4c33d87d99fU, 0x3e93478c3dff606cU,
  0x3d6cfb67bd94519cU, 0x3d1ad17f3d95da9bU, 0x3db41b46bc4bc9b5U, 0xbe9ead7abc59f96eU,
  0x3ddc37c3bd6e4451U, 0xbe1a13c8bdceb694U, 0x3e3e3809beb8bcdcU, 0x3c065a23bdeecff3U,
  0x3c82762c3e128d9cU, 0xbec755f9be5d6da8U, 0xbd631151be8b8a0aU, 0xbd9d700bbe0e1b5aU,
  0xbe7e9e65be47768cU, 0xbdd600dabe4a797eU, 0xbe565a4b3da6e616U, 0xbefb523d3d8a373eU,
  0x3de5f5ea3bdafe7eU, 0x3e574d14be65cfebU, 0xbe8c96323e101fceU, 0xbd3d3d133e503e42U,
  0x3e353d4abf02e678U, 0xbe9d319dbda0e2d8U, 0xbd59fb4cbe34fde2U, 0xbdf8d4f2bdf2b68eU,
  0x3df9ef6f3e40928aU, 0xbe851bf0be38d915U, 0xbed1e85fbd868918U, 0x3dc0bfe5be4e6cd1U,
  0xbd6773adbe2b6906U, 0x3ce298073df5ac06U, 0xbe37f4993e57e07bU, 0x3eb3b561be9b1056U,
  0xbe23be053cab4386U, 0x3e2b0adcbf25f6feU, 0x3e62a2153d029aedU, 0x3e5f304fbe144ec1U,
  0x3e004994be2c2b59U, 0xbe64e4a5be50158aU, 0x3e37995c3e075fb8U, 0x3df965183e3d1363U,
  0xbde50a55bd3bf81dU, 0xbe210b3fbea950b0U, 0xbe9bb029bc70bdf5U, 0xbe00c1583df93cf7U,
  0x3ca4aafe3e315265U, 0xbde74a8fbe7e2a14U, 0xbdc9b6a53d09db5aU, 0x3e7872c43e764640U,
  0x3e8ae66bbd7aa965U, 0x3cfc010a3da32df4U, 0xbd132f21be9996a8U, 0x3de7589ebedd4290U,
  0x3cd683533e88a511U, 0x3e3109c5be85d21bU, 0x3e047dbf3e00540cU, 0xbdca6e553f2d7ee9U,
  0x3ca72d29bec4b93aU, 0x3e1724e4bda78b2eU, 0x3d6b6b9dbe91f312U, 0xbe0f5f773c0c9131U,
  0x3d93206fbe132b1dU, 0xbd7b7f88be88b4ddU, 0xbe368088be5b74fdU, 0x3e75a86f3b030b19U,
  0x3e036952bdafae38U, 0x3e07ef353ea8271dU, 0xbe9306c93df0415eU, 0x3d823ac83deeea7aU,
  0xbe86f0413a332448U, 0x3dc6f0ecbd603f53U, 0xbd94d7d2befc76edU, 0xbd84b3173ca095e4U,
  0xbd74cddabe204d1eU, 0xbe394d0c3cbe3874U, 0xbdc59c11be912cafU, 0x3e031a813e7e08dbU,
  0x3d646fb2be86b840U, 0x3e1e52863c8fa946U, 0xbdeda17abe8955c7U, 0x3d8b1ccbbe27c548U,
  0xbc8db67dbb86e2adU, 0xbdfab1c1be221fe8U, 0x3da21edf3d3d6729U, 0x3e80fe1cbd2d6e4dU,
  0xbc098a163db7a174U, 0xbded385ebc98b55eU, 0x3cfbae873db083fcU, 0x3e2fba8dbd5b59d7U,
  0x3cb42d54be073fbbU, 0x3e03fce5bd9ec0a3U, 0xbc7d5dd73e095905U, 0x3e0bfba8bddbb76bU,
  0x3df3b2a03da3fd4bU, 0x3d52458abd35fad0U, 0x3dd2e764be45a25aU, 0x3c02187e3d6ad2eaU,
  0x3ce40117be4a2627U, 0xbd8d5334bd8af521U, 0x3c87f9343e164d67U, 0xbdc5facbbce191b5U,
  0x3dcad4d03cb4bbe2U, 0xbd9d4eb7be68b6c8U, 0xbd0a7f11bc8f4b32U, 0x3d95c7e2be01ce10U,
  0xbcbfe332bda275f2U, 0xbda3dd353d013913U, 0x3d81be193e01c51bU, 0x3ddf98eabd639adcU,
  0x3b8014e23e3e9d5bU, 0xbe3c4d5cbe618db8U, 0xb9685342be14df5eU, 0xbd06196a3e30c36bU,
  0xbd66ab3fbc205d81U, 0x3d7bc6bc3d316df9U, 0x3d8ef8eb3b966365U, 0xbe3617083dfd3614U,
  0xbd0388d1bcbd4357U, 0xbeaaf52abd9780f1U, 0x3b3cc5ddbd4ce600U, 0x3ddc85a2bdeaa3dcU,
  0x3dc7578bbc1520b2U, 0x3d0f4339bde2f94fU, 0xbea883d73e7a0709U, 0x3e191248bd0bf4bbU,
  0xbdd706113e7b3c3fU, 0xbef45870bcb1866aU, 0x3e7d40d1be0517a4U, 0xbcc438913cdd4a61U,
  0x3cdc98233c0932dcU, 0xbde5dd7fbdf3e9c8U, 0x3e2fdc52bdc01a3aU, 0xbcdb0a563d8bce8fU,
  0x3dad73363e924b62U, 0x3e13bf7fbdce8eabU, 0xbe8a321fbc8c97f1U, 0x3d99f4113da427a6U,
  0x3bfef3323d4e06d7U, 0x3d708df6be1cf394U, 0xbdb14be13d95b38dU, 0xbc8163993d2c8fb4U,
  0x3dcabba83ce9a46eU, 0xbcb38538be0f39e5U, 0x3d39fefb3d978e72U, 0xbde759b93e008804U,
  0xbf0d8ea7be41d606U, 0xba4e5e4d3d954fadU, 0xbd957ffbbeb9b8abU, 0xbf03c05f3da6ab5fU,
  0x3dc0eeeb3cadfe4eU, 0xbd3d650dbdf6064bU, 0xbee536a8bdb309b4U, 0xbd2e44d83e72baf0U,
  0xbc2622e43d32d493U, 0xbd68a7003d1cae91U, 0x3d92d65ebd01ca17U, 0xbb1d20f73eb54f85U,
  0xbe4dac5839bcd421U, 0x3e1ec3dbbd33d167U, 0x3dca55cabe1ce5a3U, 0xbe74780b3c89cc8bU,
  0xbeb96377bd099d10U, 0xbe8cd71e3e781d12U, 0x3e0b560dbf319efbU, 0xbede31c0bde5bd25U,
  0xbb9954393e9a0d42U, 0x3e35bb53bd0288c4U, 0xbec6d6f23e1c7a3eU, 0xbdfd9ec93f3115c6U,
  0x3b8b49b8bc18146fU, 0xbddf1901bd5d5d40U, 0x3ce9c1d5beca4d76U, 0xbe1897b73e0f1311U,
  0x3b395d59be9e3fb4U, 0xbcead65b3d94b8f0U, 0x3acc8f1dbd67a80dU, 0x3d01254cbe248224U,
  0xbe90cafebd75b3b1U, 0xbe5604913e98292dU, 0x3e03bc1cbe2c7df0U, 0xbe2ffe073e11074fU,
  0x3e307fd03e50688eU, 0xbd62006bbe3813ebU, 0xbd03e04e3df86f70U, 0xbe8ea5113eca6f7bU,
  0x3cb079b3bdf2641aU, 0xbe7d32e6be5dd7b4U, 0x3d3fe882be01f17dU, 0xbcfc666cbe01a7e0U,
  0xbd3b48ac3dcfc4d0U, 0x3c7f5767be1f104dU, 0xbcc6a087bbdba6caU, 0x3e20d0753b3e436bU,
  0x3db1c298be877698U, 0x3db1f7183e27a92aU, 0x3d3dc03cbe2e6c60U, 0xbd3d61e2bd824455U,
  0x3e1effcf3e563f30U, 0x3e5c37d2be2faf92U, 0xbeb39ca53d45e2a7U, 0xbdda0ab93dc3ee70U,
  0x3c88ce6dbe5af1e6U, 0xbe98cf42be1d47e7U, 0x3cac1ce73ce9b159U, 0x3e035db8be5eafdeU,
  0x3de2c11dbe00d04dU, 0x3e3877adbe9cabf6U, 0xbe00e77fbe705ab8U, 0x3ddbba6bbe6a8938U,
  0x3c3313b5bea3286fU, 0xbdcb989b3e977300U, 0xbcb7f6afbd6efd8dU, 0xbea5e5d5bcf2c3a4U,
  0xbe0d26053abb3d28U, 0xbe67e6ab3d46ccffU, 0xbe16a63ebe7e3facU, 0xbe1066043d92d31eU,
  0xbb5fc5103e0ffabaU, 0xbe04e3aabe18c2feU, 0xbe281fdcbdcac945U, 0xbdba4c443bb4f37cU,
  0x3dde26aabe68ffe5U, 0xbbd8f585bdb1a932U, 0xbe134d6ebe051f27U, 0xbf0d4d45be83bcbaU,
  0xbd96e7d2bd5b6b1fU, 0xbc7df46bbc1e5b03U, 0x3d1fe3e63e496b1dU, 0xbe7f71b03e392eb3U,
  0x3e39beaa3ddcbcceU, 0x3d7c0a37bcfd87edU, 0xbe7cb9abbd7a619bU, 0xbe061c723ed7c4b0U,
  0x3e0077a2bdc6d2e7U, 0x3c83330fbe2d9874U, 0x3d043c88be3c99d9U, 0x3ddc8140bd9387eeU,
  0xbe2ca7b5bdaf285dU, 0xbd3994fdbd830a81U, 0xbdd60733bca0c1c0U, 0x3c7f68f93c7c8d65U,
  0xbbd77c8a3d841624U, 0xbd33a2bc3cd58bc4U, 0x3e3906193e057d72U, 0xbf2a22b73e97e43bU,
  0x3e25cabcbd8ec2f9U, 0x3e06da27bda41b0bU, 0xbead045bbeb92d6bU, 0xbe1c8cd33edd19c1U,
  0x3de10248bce2d9e2U, 0xbebea36fbe3fc579U, 0x3ddd8e27be584eb6U, 0x3da609e8bd8ddaf7U,
  0xbeccd9d9be6465aeU, 0xbd6d09d4bbe745b2U, 0xbd8337fc3cfe0310U, 0xbf101434be04e467U,
  0xbf03b427bdd981deU, 0xbd906fa7bca28600U, 0xbe65aca23c577a6dU, 0xbec1d2823dc36df9U,
  0x3d4c56fcbd9d2984U, 0xbe0c64eebcde6c43U, 0xbea4052dbf8e82acU, 0xbe53596f3d98034fU,
  0x3d67231b3dc6663dU, 0xbd99c5603dbb4bddU, 0xbd3e5497bed58ce4U, 0x3cfd65403def6c70U,
  0xbe2d3abfbeb899efU, 0xbbcfc5eebdafe59eU, 0xbdc68dd63c621553U, 0xbf9de365bddacd89U,
  0xbefe68313e6903e3U, 0x3c0586adbecaa0dcU, 0xbd91ee1d3af39298U, 0xbe89154d3e10aa64U,
  0x3e05eade3e4f791fU, 0x3c0d581ebea0fd9cU, 0xbc70b8da3d7fe3d4U, 0x3d82c877bf50a163U,
  0x3d6d43efbeb64d40U, 0xbdf19c87bdf0e092U, 0xbc7819e0bdb36cd4U, 0x3dc7755ebe31f9e2U,
  0xbdeb90363df57a00U, 0x3d16b75b3d37b7beU, 0x3d784270be04172cU, 0xbe18ee233d89e230U,
  0x3e1382fdbeab3528U, 0xbd0fc2d5bdd51e3fU, 0x3d4885b73e32deccU, 0x3e3ecd2c3d19046fU,
  0x3dca3d96be2fd35dU, 0xbe2290a4be9070e3U, 0x3da0c52ebc07f901U, 0x3e1ba9a1bf4e60c6U,
  0x3e8b4ca4be488f49U, 0xbd75beacbe0a1684U, 0xbe6951a63da1eef7U, 0xbbb69eacbea69d08U,
  0x3e3d3c18be040f2cU, 0xbe9716a6bcc2f83dU, 0x3c7438f6bdca1400U, 0xbe9b036bbdcabd5cU,
  0x3cfcc413be29da51U, 0x3e25741bbe16c6c7U, 0x3d27dd3d3e2b5e8fU, 0xbed573613d51ac62U,
  0x3e7f38b0bc377379U, 0xbe655812be73aba1U, 0x3e282ab53d862aaaU, 0x3e228392be849464U,
  0x3e66322139c357c5U, 0xbdd6420abe1b346dU, 0xbea8c05f3e4b0914U, 0xb9cb5984be877bf1U,
  0x3d225d39bd07033bU, 0xbea8bf82be7f1803U, 0x3b5363e4be28f7fbU, 0xbe69706ebde1409bU,
  0x3e3d2d33be779169U, 0x3e1707133e1e51a9U, 0xbdfa2457beba5f20U, 0xbe6e4b10be9ff73dU,
  0xbd8d5ea13e149490U, 0x3e7c38233dc39deaU, 0x3d88b53fbeff55f3U, 0x3e8032a63dbcc5ccU,
  0xbe31e7c1bd373110U, 0xbe1d8079bda11186U, 0x3de96791bd7c0a2cU, 0x3c9a79d13e076e39U,
  0xbd9de9d7be050afcU, 0x3d47322abd7d4992U, 0xbc9aafcfbcda931dU, 0xbf16dd6ebe0d5d4eU,
  0x3d8363553d40904aU, 0x3da22e413c0809ffU, 0x3d2b5f07be826871U, 0x3e3b7a5dbe0c8f67U,
  0xbd2dae3cbe7ac904U, 0x3d7e42103deb1fd1U, 0xbd37806fbe918cbbU, 0x3caf31e4bec2230eU,
  0x3d78b4903e120bf7U, 0x3e3107563db8e960U, 0xbd74edfcbd9b2aeaU, 0x3e2b9d06bd5b089fU,
  0xbba3e8e0bdfe829aU, 0xbd8cd0413c9a007cU, 0x3e3dee6d3df9850eU, 0xbe5d4532bdfc4c48U,
  0xbef02a453e10e916U, 0xbd932b58bc876b49U, 0x3d84bf93bdc16388U, 0xbcd135c13cd09a1eU,
  0xbd826eb7be16cd02U, 0x3dd080b33d6ad896U, 0x3c8cf450be0f131fU, 0x3e49e099bd838500U,
  0xbd1b4c213dcd0359U, 0xbda31f83bb27b24bU, 0xbd699ca03d64af12U, 0x3ebb4d2e3e944844U,
  0x3e20f702be2df298U, 0xbe2801163dd658b4U, 0x3e33427bbd87608cU, 0xbed0e302be34d80bU,
  0xbd70a4f7bc0893d1U, 0xbdc02c0ebe11b052U, 0x3c5d022cbdb81b48U, 0x3d5fff5ebdb3108eU,
  0x3d6592d1bdd2dd27U, 0xb9f662453e148f43U, 0x3e7c2d89bd659583U, 0x3d79441f3cc1f0adU,
  0xbdffb5783d55cd3aU, 0x3d8520aebd471e9bU, 0x3d27555fbdb6de5cU, 0x3d77f3b03e28c9d4U,
  0x3dadcbc4bd779409U, 0x3b9f8728bd11e277U, 0x3bd30be3bd1cfa74U, 0xbce3949cbe353417U,
  0x3d8e57683dc21f67U, 0x3e4188c4becede41U, 0x3cc695c93db0028dU, 0x3eac0f8abde83ec8U,
  0x3e283b1fbe8fbc5bU, 0xbd42bb2a3df16e20U, 0x3d0317aa3deb709eU, 0x3e3453a1bdd8670bU,
  0xbd9227f03dd7ff82U, 0xbcc24b5abd943f6cU, 0xbe178207bdd402ebU, 0x3d5408dc3d844d4bU,
  0xbd3c0738bd107c64U, 0xbd80d3523e16abaaU, 0x3d51f2513df846daU, 0x3ed2ebd9be6c6168U,
  0x3e0120e7bdfd6ca4U, 0xbc550105be949deaU, 0xbe124c413e4c7341U, 0x3e929b553d19440fU,
  0xbd2d175dbd79902eU, 0x3dad1b70bd4b38e2U, 0x3ecc1122bdab1d4eU, 0x3bbe542bbe07d897U,
  0x3e00ab693d8e0f70U, 0x3d94ffae3d48bfd8U, 0x3b8c0e80bd4af761U, 0xbd9293323eed8ab6U,
  0x3e00f981bca6a8e6U, 0x3e0ef25d3d680364U, 0xbd1515d7bd892aafU, 0x3eb6221dbe0ac6f0U,
  0x3e6198c03ce6af71U, 0x3cee6115be50bc7fU, 0xbb67da67be476374U, 0x3e18a917be431c7aU,
  0xbdfd7bfabcafdae6U, 0xbe8e8c22bdd3a727U, 0x3e0621c23e6afd9eU, 0x3d819a783e7f91cdU,
  0xbe3f00163dad755eU, 0x3d9fa6a0be88e845U, 0x3c82528f3d5164ecU, 0xbe01262c3e7881f6U,
  0xbda16086bca81a07U, 0xbe30471fbdf23951U, 0xbd5a76f0bda1b207U, 0x3eae02183ddc3bebU,
  0x3e5ebfedbdf9dbdeU, 0xbd88e07a3dee48c7U, 0x3dfbbef9be824543U, 0x3ea2e338be14f6fcU,
  0xbdf256823d96ce75U, 0xbedcf75c3bb29b5bU, 0xbe58245b3cde5f23U, 0xbe6c205a3d1f73edU,
  0xbbe0916dbe4adcefU, 0xbda5759ebe4b8f63U, 0xbeda2adabd821c7dU, 0xbd93d4de3e500f2cU,
  0xbcb150463da1e0f2U, 0xbdfe74f3bcfe8bd0U, 0x3dbfe1ae3de51629U, 0x3e604056bdff2978U,
  0x3e84270bbda57f58U, 0xbcdcf8c43e42ddabU, 0x3ccbd66e3d5cbbf1U, 0x3b353122bd698334U,
  0x3dba34ae3def192dU, 0xbe9f6292be512263U, 0xbec4b9143d4d90d1U, 0xbea4abca3e7fb884U,
  0x3e41bdbdbea1ba78U, 0xbe6ed68cbe689066U, 0xbe6ea61ebd251ca0U, 0x3e1a394bbe02058bU,
  0xbe5bf24e3c647c55U, 0xbdb58334be0f32cdU, 0x3d44d41f3db2f36cU, 0x3e05383abea48435U,
  0xbdf3439cbe47203aU, 0x3da3d3133e521663U, 0xbe24464fbbc7ec7fU, 0xbe60a932bde52ef3U,
  0xbc0aa5d43d883c52U, 0x3d91cf39bcd2a3e0U, 0xbe8706aebe7974f7U, 0x3d526b913da40740U,
  0x3e613c82bcaae14aU, 0xbd8c52d9bd6a63a0U, 0x3e4cf2d33d673603U, 0xbdcafed6bce0ef11U,
  0x3dab4f143cc51cd5U, 0x3da2a5813e1fbe34U, 0x3bb417f4bda76040U, 0xbdd276da3dba8b73U,
  0x3e0120d8bbec4fcfU, 0xbc06f46dbdc3f1deU, 0xbd798a32bda8889aU, 0xbf161e3d3dce2746U,
  0x3bf16583be936869U, 0x3d155afcbd1d8057U, 0xbe48a74fbedc0891U, 0xbe99b1a8bdc5bfddU,
  0xbd3fe8f83cf2ca4dU, 0xbe8e611f3e272156U, 0x3c43482dbe36221cU, 0x3c29dbccbe00490dU,
  0xbdb1ce463d97072bU, 0x3e67d6d63e3802ffU, 0xbdb4b5573e48c176U, 0xbf45cb853cdad81cU,
  0xbedb7e963ba4537bU, 0xbe0aa1bbbe81449aU, 0x3e083443bdb56a35U, 0xbe5980d73d3b910eU,
  0x3cc1fc57bebef62eU, 0xbea07bb73d9f2401U, 0xbd92d9eabefe517dU, 0x3dd9aaf9bde6f724U,
  0x3cc4ec093e44fa1dU, 0xbd376c2b3e451e05U, 0x3d957009bd9753baU, 0xbdcad6dd3d13c18aU,
  0xbe0c48423e022227U, 0x3e789c943dbc7fa7U, 0xbe0402ea3e4842d4U, 0xbea3e3d6be1c8aa1U,
  0xbdc7c9263d7dc1a3U, 0x3e3662f0bec28999U, 0xbdd8cc0f3d250acbU, 0xbe7862403e0a567cU,
  0x3d5655493e006ae4U, 0x3e4077323ca318dfU, 0x3e1dba913d19eb0bU, 0xbcde8988be89bf65U,
  0xbcfc5842bddb4d05U, 0xbe97ebfdbe016dcbU, 0x3cbf31d43c895a37U, 0xbce33dcebe7c1d73U,
  0xbde7cf8e3d14ba93U, 0x3c94e13ebbc7e25fU, 0x3dd3da11be29880bU, 0xbdb561713d8a6172U,
  0x3ea5dc8abdf8c244U, 0xbd6e23b93db57d31U, 0x3e07447c3d8a466fU, 0x3dc762643d5d0732U,
  0xbd58a0803dc56d8bU, 0xbd8e15dabcef89adU, 0x3d88c8fb3e9e0542U, 0xbe0216f4be0b191bU,
  0xbdc7eccd3af69c48U, 0xbed0e364be1de605U, 0x3ca5f03abdbfaf76U, 0x3de45069bedcbf23U,
  0x3d4f04103e014ee1U, 0xbe4e3e9b3c98b277U, 0xbb220338bdc5d03dU, 0x3eb412d63dda4a8cU,
  0xbd53cc08be1ca864U, 0x3da41db03e470181U, 0xbdb3b0e33b9d1f04U, 0x3e9e40703dfa8ef1U,
  0xbe4d91e43e18ac5fU, 0xbdc89eed3d72b6e9U, 0x3e99db673ddfbf67U, 0x3e451db9be07d180U,
  0xbe0d0318bd1ea23cU, 0xbe83af62be62d2f0U, 0xbe2d33e53d6f5e80U, 0xbd85ecf3beb257cdU,
  0x3ea3669b3d0730aeU, 0xbe5146babd7c8e2eU, 0x3e0e3a8fbcfeb637U, 0xbcce9bb2bd8f32e3U,
  0x3eb8a2433b310b8eU, 0x3e1f2c443c8654e6U, 0x3d992d303c9749a4U, 0xbc2bab153d44b861U,
  0xbe1e6ee4be47dab6U, 0xbd73634ebdba8ae0U, 0x3e4c886dbc502b25U, 0x3de549403e29f172U,
  0x3ddb6698bd4e5e01U, 0x3ddb5553bdf2f7c7U, 0xbdb6454a3d4ec8fcU, 0x3e61e0e93e8b5c9cU,
  0x3e0e0f643df59328U, 0x3dac0edbbd71e6acU, 0x3dcc50923dc1c4ffU, 0xbcb721b13e40252dU,
  0xbc5e12e33d1c1fe0U, 0xbdbb9396be128465U, 0xbbf5f9c03e1d7ef0U, 0x3dc06a9e3cd4cf9cU,
  0xbc7449a3bdbce7edU, 0xbe8a4d863d7935cbU, 0xbe6723e4b918d29cU, 0x3d510a40bbb58012U,
  0xb81eeab6bdf5f979U, 0x3e8026b8bdd207cfU, 0xbdb28f353b49edd2U, 0x3e09432dbcdaa4d7U,
  0x3e2dcdf03df883a3U, 0x3d3d3775ba8d1ad4U, 0x3e2a33d33e21ec54U, 0x3da15192bd8d791aU,
  0xbe1dafd93d160727U, 0x3e064262bdeb3e68U, 0x3cfba28f3e2e47efU, 0xbc83d1863e595cfbU,
  0x3e1428aa3cc25a8eU, 0x3ce594473d13e6f8U, 0x3e3bdf153d1455e4U, 0x3e731b743df55fefU,
  0x3b999ac33a6d40aaU, 0x3dbd6cbbbe4766b3U, 0xbda6abf13dc938deU, 0x3d32f13abeb8b8a2U,
  0x3c94a3fcbd336cd9U, 0xbe945ec0bdf204deU, 0x3e513b60bd3bdf0bU, 0x3d9a25eb3da4bbeaU,
  0xbd3e5a89be55e034U, 0x3e552ab73d127ec3U, 0xbda828ce3e5a6f08U, 0x3d5323523bd589e7U,
  0x3d3e99e3be2a122cU, 0xbe938657bd6ef05cU, 0xbd4a0a2abdae8bb7U, 0xbbe35b26be4d4adeU,
  0xbe24d7c4be238a37U, 0xbdd4f5cabdf4d4a9U, 0xbe156c71bdc07188U, 0x3d8fa456bd870797U,
  0xbe2ea8923d1143cfU, 0xbea2a3983e0f14c0U, 0x3d90a0a6bdae3741U, 0x3ea56db1bd920861U,
  0x3caa517fbe3422aaU, 0xbde6b4eebeab4a1fU, 0x3d1c748abd81b9edU, 0xbe3d3d46bd71d995U,
  0xbe09a664be469a31U, 0xbe690fc2be846833U, 0x3ea35c113e99ba26U, 0xbd8e1d033ac77e96U,
  0xbe0a8f9fbd0afca6U, 0xbe3a7b9bbe8fe29aU, 0xbe5891b8bd956109U, 0xbd8637ab3e57294eU,
  0x3db95e51bdf9cf1eU, 0xbd9ab200be32e7f2U, 0xbb9caaab3cf1cfbfU, 0x3ebb3236be03c6c5U,
  0x3ec8019f3db09f5eU, 0x3e3fafeabd555c6cU, 0x3dc81f0e3c3ec09eU, 0x3ca0c8d9be4fd9a6U,
  0x3df3a3033eb07db6U, 0x3e7284e9bea87253U, 0x3e32ed673ebb0728U, 0x3dd419fc3e5e6b19U,
  0xbe04a08dbe6bb601U, 0xbd87c003be389cd1U, 0x3db62a96bdcd153eU, 0xbe6b3cadbe3e9174U,
  0x3c0d8310be4f0969U, 0xbe14d54dbeb86339U, 0xbe1980cbbe0ed4caU, 0x3ebe5159be607d7aU,
  0x3ea5750bbe862236U, 0xbd78fd883eec70d7U, 0xb9d89499bdbe8915U, 0xbd4d3438bdfef68fU,
  0xbd9106b63d96172dU, 0x3e5a62453da16430U, 0x3d6509083e21316aU, 0xbe3722fbbe93ff5dU,
  0xbdd12c273d70e34dU, 0xbcef3bd2bdf781faU, 0x3ca3ae5f3d864f5dU, 0xbe6c663fbe0978efU,
  0x3e08a7743e4986dfU, 0xbdecbf7d3e4bf39cU, 0xbc975f6dbc205d52U, 0x3e11e2983db6838aU,
  0xbb413772bdd926e9U, 0xbd2a839a3dc0a5c7U, 0x3dcae58fbd4a3904U, 0xbd2bf7a3be143a36U,
  0xbdcb8592bdee7744U, 0x3e4a987e3d238931U, 0x3e0b204fbe53298cU, 0xbcfd598d3d1ca0adU,
  0x3d09f3143e241157U, 0x3cd85f99bd989afaU, 0x3d03b452bd277fd8U, 0xbe9cc4813d709178U,
  0xbe5731cd3d3e8e57U, 0x3dfd3d213cdfe5ceU, 0x3df970533c5fc2fdU, 0xbe81103dbcd71792U,
  0x3e55c6793e0054f8U, 0x3e094cd1bd669407U, 0xbe3088a8bdb72bf1U, 0x3de4dd4cbe5d6f66U,
  0x3dfda934be8ea620U, 0xbd239d453e54195aU, 0xbe811c063e8f5f9dU, 0xbe8e77e5bea1a142U,
  0x3dc46f50bd0eaec2U, 0xbdaf26833c94a031U, 0xbe1890603dbd6ee0U, 0x3df1319fbe93b74bU,
  0xbea4455f3e1ad2c6U, 0x3b32e7af3dceda34U, 0xbdf9fe523dc15010U, 0x3e5cd6a73e0df2f5U,
  0xbe5ce7aa3d5f1f11U, 0x3d8ed3cebe4900daU, 0x3e048fbdbdc3cf08U, 0x3e0c8d8f3c1b1de0U,
  0x3da04fdf3e062ef7U, 0x3e507b113e5af982U, 0x3deae5ab3c9e67b4U, 0xbd897dc63e04b2cbU,
  0xbda01c7f3e23b845U, 0x3d205d3f3e269919U, 0xbc889863bd81f90dU, 0xbd0cecfabe132d1dU,
  0xbd46540f3db80613U, 0x3e565cee3e14cc65U, 0x3d82ec483d145065U, 0x3d05a0843a868f18U,
  0xbd8970e13d6e29c2U, 0x3de4e56c3e24247eU, 0x3d72b07cbdbb0c7eU, 0xbd1f13c5bdc95335U,
  0xbd688c343d23364aU, 0x3c2206ba3d8a0736U, 0x3dcb8a773e306fbfU, 0x3e05a20ebda8782dU,
  0xbdae3b8c3cdab3daU, 0xbe46e8693c842f05U, 0x3d32babdbdede7eeU, 0x3da14ad53de57404U,
  0x3c18b822bd3f1400U, 0xbcdcd8273daf9d98U, 0x3dc03d203ddf864fU, 0xbd05cafdbe50fbd1U,
  0xbd3a1ad73dd99876U, 0xbdaaf97ebd51a785U, 0xbea6e6363d8575d8U, 0x3b6b9f47bb1295b8U,
  0xbd521e95bd89cac9U, 0x3e42286d3e111660U, 0x3e08fbfcbd9e6fc5U, 0x3d6318a7bc4aaed6U,
  0x3dea45e23dbff902U, 0xbdde1e2a3e645b1dU, 0x3e2ef18c3c52c88bU, 0xbdfb81373d00fbddU,
  0x3d83a97fbdac6bbaU, 0x3d39fed9bd22c05aU, 0xbdd331d83e1c89f8U, 0x3ed511143d9c83c0U,
  0x3e9081313de895c1U, 0x3dee832bbe512bf8U, 0x3d0900f3bd650072U, 0xbad23287bc8d91e2U,
  0x3e18350a3dfa854dU, 0xbcb644b0bd822468U, 0xbe46bd573dad760cU, 0xbd3b5d953d8c3d15U,
  0x3e0961cfbdba8e6bU, 0x3d34a1f53e121172U, 0xbc707086bd440caeU, 0x3d23695f3e80bd86U,
  0xbcac670fbcbb0861U, 0x3d7fc5eebd096549U, 0x3c878d02bdde9ba3U, 0xbddbdbf83d427cfcU,
  0xbe21a65cbdfaddb3U, 0x3d1698db3e0cc48aU, 0x3dca0bdcbe188133U, 0x3d88a40c3c72f739U,
  0x3e3371473ec6e379U, 0xbe16ad7a3cf50985U, 0xbe8f42043e58cb98U, 0xbe4b1ac4bd295bd7U,
  0x3df8f4fdbcd4e751U, 0xbcb403983dea2e54U, 0x3c1df57abdadc5faU, 0x3d054dbebd31c9c6U,
  0xbe70c6083d69e491U, 0x3e134344bdafe753U, 0x3e0709c2bce92515U, 0x3df09e0c3d41fe95U,
  0xbd8b96cbbe437f95U, 0xbeb40b523ecbe9e3U, 0x3df9cd52bd0ca565U, 0xbd84bcef3d923e44U,
  0x3dd46dd53e1ac9aaU, 0xbe055082bda1e1c5U, 0xbe37c6713e5a776eU, 0xbe1d67b53e46c518U,
  0x3dea31b43dda8f79U, 0x3e0a9e8cbe21fdb4U, 0xbdf11406baba3926U, 0xbcc597afbe2037d7U,
  0xbe2fdd203d0d9595U, 0x3e55059a3dcd107aU, 0xbd6fdebb3c92d68fU, 0xbd5eea80bd63da69U,
  0xbe2ab4a1bd59e4ddU, 0xbd583bdb3e7aecf7U, 0x3e4eab153d8e102cU, 0x3e259813bbcef0c8U,
  0xba2312c03da81148U, 0x3df90ef9be6dbb31U, 0xbda023b63ecb8d59U, 0xbe3aefdbbce64efcU,
  0xbda0b8373b5890d5U, 0x3d984fedbe8db91cU, 0xbe086ed2be8a6a8bU, 0xbe081113bddfc241U,
  0x3d93cdaabde04b2aU, 0xbcd08e87be4590feU, 0xbd384ad7be376f45U, 0x3e46f19dbdae7abeU,
  0xbeb33850be31909aU, 0x3d85e21a3cf2b71eU, 0xbdaf85dabd6bf466U, 0x3e19d8c53d5920faU,
  0xbda3b4503e12d67cU, 0xbdffedf2bcaada29U, 0xbd4b8590bea3034eU, 0xbe22b2f3bc613ce2U,
  0x3df8fe5abde5c0b4U, 0xbd001db83c83a696U, 0x3dba283dbdafa92fU, 0x3e4f39a5be71cab4U,
  0x3d6a8975bde8c683U, 0xbdc9bef8bd4ace79U, 0x3de78051be6ce6dbU, 0xbe72985cbe6562fdU,
  0x3eb19d6dbe220b1dU, 0xbe00c8d13bdc7214U, 0xbd81c7d03e7e7f15U, 0xbe194c013d64c9b2U,
  0x3d40190bbd180056U, 0xbdaf7158bd1cd195U, 0x3dbb9a69be5a7e61U, 0xbd92f02fbe6da396U,
  0x3da60e623e270ae2U, 0xbe66326dbe8842dcU, 0xbdaaf69bbd67201aU, 0xbd0da372be120a6fU,
  0xbdc881b9be8cbb03U, 0x3db10dcdbe0b129fU, 0xbd4bd3093dc47059U, 0xbdedf73bbec1265aU,
  0xbd53e9eebd604a46U, 0xbca0b71ebdae2fd7U, 0xbdcf868dbd4cebc8U, 0xbe0cb3bfbe12d1a2U,
  0x3e2e48033e1ba3baU, 0xbbe750823cc832c7U, 0x3dfd559ebe55d36dU, 0xbe2eab8a3cdabc38U,
  0x3de69ca13e1f55d7U, 0xbef7b9ec3cb17415U, 0xbdbc9b63be508db3U, 0xbe4b09243dd04e52U,
  0xbea79f42be0ab413U, 0x3da1997f3e197afbU, 0xbe12acfabcf025c7U, 0xbe9ceaf2bf08a8dfU,
  0x3e1713863e695365U, 0x3e1896213d9d4952U, 0xbe438536be23d14dU, 0xbdae1493be894a94U,
  0xbd4bb09a3dd3ddfcU, 0xbdc35adabd751f64U, 0xbe97a831bd903daeU, 0xbebf6cc73e2854a5U,
  0xbc876c533dfa948eU, 0x3dcab057be03866dU, 0xbd9d8fecbde7a083U, 0xbe023651bd0a9aaeU,
  0xbe621ff3bd389748U, 0xbda06ef73d024efaU, 0xbe8d4a223e0f0accU, 0xbe3ca85dbe4919d4U,
  0xbe74c12cbd997629U, 0x3d532e043b4c20b8U, 0x3c76ae2abdba2fa4U, 0xbeade96ebe42325aU,
  0xbd3d08ec3e3187b1U, 0xbd876df53d12328cU, 0x3d018d9e3e7f97d3U, 0xbe517574bdbf9f17U,
  0xbd0936e5bb65a516U, 0xbddcd49e3e248607U, 0x3bd539ae3dac5501U, 0xbc0960b23e185a2fU,
  0xbd33aec73e0b889fU, 0x3dd0d2563d23e216U, 0x3d95d2e2bd4559b4U, 0xbd7d9c5d3dd5aca9U,
  0xbe92e6f0bdadcd1eU, 0xbe1e2abb3e931554U, 0xbea759353c9fb949U, 0x3ec1b103be2541bdU,
  0xbd0c772fbeaa8606U, 0x3c5eaaa1bdba2345U, 0xbe88600ebe600e99U, 0xbc9bbdc0bdbc8f28U,
  0xbe16e78d3cb31b08U, 0x3d97775cbe003224U, 0xbdc6001e3db0ed4dU, 0x3c1aff523e81447fU,
  0x3e055eb7bd38f6c3U, 0xbe056b893d6281b4U, 0xbd94e4763e4ebbc2U, 0xbcd31aeb3dc09eceU,
  0xbe826bb3be066656U, 0x3e1012f2be76a7f8U, 0x3ce1d492be32f689U, 0xbe56f4333c2f8373U,
  0x3e57d5553cf02050U, 0x3e8f1d62be7f0dc5U, 0xbe2bcf7e3e233824U, 0xbe078363bda950c8U,
  0x3de063f9bd937ce6U, 0x3e0046e23e0236ddU, 0x3ddf7719bd4cfb79U, 0xbe3812e93e1cc75aU,
  0xbe9882e7bc337230U, 0xbd039ee0bdf04463U, 0xbb558e62bd7b46ceU, 0xbcceec673d8e39b9U,
  0xbe2ad0e8be8e2d75U, 0xbed2bc7e3ea8a3bbU, 0xbe61ddf83c68dbbcU, 0x3df22718bd835129U,
  0xbe366fb23ecd0acdU, 0x3eba77663c4a7733U, 0xbebe27243d50eb4bU, 0xbdf0bfb43b9002fcU,
  0xbdcbb548bd3e5c7dU, 0x3df747313dc4246fU, 0x3e8afe21bd38d7abU, 0x3ce12cce3e758a62U,
  0xbdb8481e3d8208eeU, 0x3e48759cbd1ba29fU, 0xbd41633fbe05c3eaU, 0xbd0769393d9b65eaU,
  0xbe332d043dbc1731U, 0xbea466a53e7879ccU, 0x3cee17ebbe251c65U, 0xbab4ac643d75b3adU,
  0xbe28eb72bebe77a6U, 0xbedc4f99bcf30df9U, 0x3c8747e43d47d84bU, 0x3de29622be45f84aU,
  0xbe3b8656bce3e47fU, 0x3e5b3cecbe09a58dU, 0xbeec03003e134af8U, 0x3d98fb963e659953U,
  0xbe52c6643e0b3702U, 0xbe64786dbd153daeU, 0x3d4b53d63da65df6U, 0xbd83f3353e2b117bU,
  0x3dafd646bddc4f29U, 0x3c98a02dbe78e714U, 0xbd459189be291ee9U, 0xbe1ee57ebe54c096U,
  0xbe38e8c5be2a8913U, 0x3daa8354bd1d52f2U, 0x3eb17cb3bccf4e57U, 0x3e1900c53ea518e2U,
  0xbeb2fed5be12d062U, 0x3ea6c5e73c84ce6dU, 0xbd91a2133ce64bc3U, 0x3da7549b3d073548U,
  0x3cb9bc80bbda35dfU, 0xbe936f583bc5d85bU, 0x3c643c90bd4e93d1U, 0x3e0a95b43d650475U,
  0x3ee7112abc864eabU, 0x3e80251bbd97d436U, 0xbd3902ecbec98dc4U, 0xbe9044f0beda79e0U,
  0xbe095fc43e20dfd3U, 0x3eae7157be110ec8U, 0xbe42589b3e258810U, 0xbdde73783ecd76efU,
  0xbe254beebd9a49f0U, 0xbeca146dbd4ca4c3U, 0x3e1572b6be873e4cU, 0xbeb72262be1b42a5U,
  0xbeee27c4be3d4fcbU, 0xbb90e114be3965f3U, 0xbe04a9d8be8353f2U, 0x3ea1d221bdd54884U,
  0x3e4af94abe945210U, 0xbee4321a3e22cf38U, 0xbdf8a6643e5ee62fU, 0x3e515c173ddb16caU,
  0xbb00197abe88cb38U, 0xbe9aa35ebe0eb429U, 0xbc7629273dd49f98U, 0xbe0760cabeeb56b8U,
  0x3e1500f83e23731bU, 0x3e2313703ca46f54U, 0xbe4f68b93c8dae10U, 0xbe13cc6fbe739391U,
  0x3e1e5e19be025cabU, 0x3d30b65dbd2c1e5dU, 0xbc0365ae3d33ea0dU, 0x3ee3c8de3d43d998U,
  0x3dfbfa85bd735c47U, 0x3d0417b2bebcb7bbU, 0xbe4717bb3e9011ccU, 0x3cff40a63e131fc3U,
  0xbdd0d021be967edbU, 0xbda5de26be157755U, 0x3e842162be75f735U, 0xbd0f502abe490272U,
  0x3de305783dd942c5U, 0xbf0c233bbdd84670U, 0xbe8efa19bdb71f4eU, 0x3c2dc6bebf06d154U,
  0xbe032eeabdd800a2U, 0x3bbbe3d9bd94e82bU, 0x3d5a8f5dbd6ec621U, 0x3db9a7b1be8030eaU,
  0x3ea94c833e1efcf7U, 0x3e077517bee71e92U, 0xbc9957f93e333ceeU, 0xbcf4b6503e0753d7U,
  0x3ea10830bdc6ac08U, 0x3d055931bdd343fcU, 0xbe0f5479bd8a38a0U, 0xbf035d3fbc81136fU,
  0x3df5b04d3e06997cU, 0xbee4383cbe73c3f6U, 0xbe35640cbe5cef82U, 0xbde96e36bee214ffU,
  0xbeb94693be04398bU, 0xbd5485b6bdff7718U, 0xbd8e2aac3cace1a6U, 0x3eba6b9ebe0007e9U,
  0x3b57341cbdcf502fU, 0x3e79473bbe14a474U, 0xbc8ff5ccbd945841U, 0xbc9698c4bd0f1305U,
  0xbd90eeab3dc7cf42U, 0x3e39f1333e4a04deU, 0x3e00a228bc7d80c6U, 0x3e03db0a3c83d3f0U,
  0xbcb732ebbd4db969U, 0xbb4b3cbf3da42b81U, 0x3d4d78433d803410U, 0x3d583d99be7a9c1bU,
  0x3de1bba83cf169c4U, 0x3e5985fdbd0df122U, 0x3d1d2b463e382033U, 0xbda0f5333dcfa8eeU,
  0x3bfe31c23d9547abU, 0x3dd276253c2db1a2U, 0xbcc1a9853cc30e01U, 0xbdd7d54bbd6895bcU,
  0xbd089eac3d26b6a6U, 0x3a4d64003ddba5c9U, 0xbd364e9bbd1619e6U, 0x3e041bacbde7398cU,
  0xbdb2934a3d7dd59aU, 0xbd6262783dfca8c0U, 0x3d047d8ebc7d0963U, 0xbe10153dbd08b90fU,
  0x3e0130c03e1cb4cdU, 0x3e485c61bd1e2cbbU, 0xbd7036f13e23916fU, 0x3d426ef83d41ccf0U,
  0x3d4851813e24895aU, 0x3d0081f4bd040ac4U, 0x3dd58735bd444513U, 0x3d4c0026bcf0c64dU,
  0x3d8b06f43def046fU, 0x3ea8fc6a3c992e2eU, 0xbe5893b93e901c75U, 0xbe3044c93b4b267fU,
  0x3d9d21e23e6d99e3U, 0xbe7d8d063de2cbecU, 0x3e242d6e3d695c8bU, 0xbdfc1487bf383754U,
  0x3c6f72973dc6339aU, 0x3e65bcfa3d14e2dbU, 0x3c587d723e5e558cU, 0xbd327fab3e58235aU,
  0xbed1aa0d3d5e990fU, 0xbe0cbec53e5cfba5U, 0xbea9d619bccf25afU, 0xbc09a7ebbdb6e692U,
  0x3d1139e3bca0941bU, 0x3e3c802dbe2955fdU, 0x3defd245be1c7d35U, 0x3e516579be66261cU,
  0xbd16836ebafad20eU, 0xbe1815663df969daU, 0x3da9bb40bcbda876U, 0xbcb13a7fbe8db6cfU,
  0xbe3bdd7b3dd75023U, 0xbcaba79ebd589d6fU, 0x3d8c26033d55c911U, 0x3d1526a7bb5f41f5U,
  0x3dd04d9bbe2e5a83U, 0xbb8a3bbdbd971719U, 0xbdd9024abd85e986U, 0x3e328018bd6cd420U,
  0xbd30e5e4bd3dec51U, 0x3e74c68dbd9e4548U, 0x3d53fbb23e1d8641U, 0x3bd084a0bdeb8ce4U,
  0x3d8b5311bccbd3eeU, 0xbd07266a3e621fa7U, 0x3e7c5afabdd1d739U, 0x3dd97ed93e103f00U,
  0x3e1076253ddef377U, 0x3d9b386f3deb1ef4U, 0x3e0030dbbd0ba5b3U, 0xbe3a5a953d3db275U,
  0xbe105d6dbe3811d9U, 0xbd33538a3e08ce3dU, 0x3e6e11753e0e2c20U, 0x3df574fc3d940d90U,
  0xbdaa8bc93cd7a6e6U, 0xbdc91b003c66f142U, 0x3defe2393e9087d4U, 0x3da7f6c0be8714c7U,
  0xbe23ac113c7da830U, 0xbe1d5afbbda4044dU, 0xbdbcade23deed501U, 0xbb8b4ed2beb41f96U,
  0x3e475d443e4751abU, 0xbd5efb173dd4f33dU, 0x3dea89c93c709364U, 0xbd84b8b33e522d41U,
  0xbd86e695bdbbafe1U, 0x3d5fdaa13bb523ebU, 0x3e139d4fbe5a381bU, 0xbe1e17e7be0cbec6U,
  0x3e077b77bd0bf8daU, 0xbc60ff36bd626ee2U, 0xbe3b88283e08a94bU, 0x3de58ca1bdcbe734U,
  0xbc093b26bcd6c9d7U, 0xbe1aa3833dc7fac9U, 0x3d43e79fbd97722cU, 0x3d82911abe340205U,
  0x3e8c11203dbceb66U, 0x3df7f107be2ffd77U, 0xbdf83e6a3e154679U, 0xbd8d132b3da34747U,
  0xbe6e7bc8bde095a6U, 0xbda4b9a53e8ff1faU, 0xbdb38296bd168676U, 0xbef778f5bdde63b5U,
  0xbc4d82703c00280dU, 0x3e1141013da77fb7U, 0xbeae7d62bf023a20U, 0xbc89567bbdf444ccU,
  0x3d3bbbbf3d89bb52U, 0xbe44026d3dbe5fe7U, 0x3e531f713d8a7c82U, 0xbdd71f96bda90752U,
  0xbcad54f6bdb0e7cbU, 0xbda088dfbda745f7U, 0x3e3faaa43d0de16eU, 0xbec012f0be8575b7U,
  0xbe9290273df04f6eU, 0x3cbafc21bc2073dbU, 0x3dfef372bda2abcbU, 0xbdcd91603e3b2106U,
  0xbe18bf32be319a19U, 0xbd51699f3e62fd1fU, 0xbe7743b7be8f83baU, 0xbe1aa995be406c1cU,
  0xbcf1923a3de6560dU, 0xbdcbf8e93e2a9b39U, 0xbd86ec4ebd6e304aU, 0xbe05c936bd5ff9c7U,
  0xbd99c542bd08f225U, 0x3c9802413e73e88fU, 0xbca6d6793d21d3ebU, 0xbe7adea0bc7a22d5U,
  0xbd8ae6fc3ddb7d56U, 0x3df64b63be688374U, 0x3cad28c53daeade2U, 0xbe5f09573ab0eb21U,
  0x3c3d070bbe42a7efU, 0x3e620f763ded9fd9U, 0xbd7cd611bdfe3cfeU, 0xbd76c227be99152dU,
  0xbe0e1be63c55441bU, 0xbe253d223e34dffaU, 0xbce7daff3e37261fU, 0xbc9584f1bcffdc3aU,
  0xbcfe09ab3a604011U, 0x3dce55543d98882aU, 0x3d464bb83c3be825U, 0xbe6e26293e3c3bbeU,
  0xbe294e173ce67e27U, 0xbe012ecfbe903634U, 0x3d9ae578bdc40225U, 0xbd36a4c13ceed2bbU,
  0xbe6db92abe390f1dU, 0x3c69718f3e0a6cfdU, 0x3d4c7c0fbe911ae2U, 0x3d51cc6c3b5ef66fU,
  0xbd32730b3dd1d175U, 0xbd68bba23df9a3b7U, 0x3c58bd0c3dc89cf4U, 0xbcb665a1bd0114a2U,
  0x3e578bda3e07e2e3U, 0xbbd21fbc3c843f60U, 0x3d6499903e00300eU, 0xbe9c282b3e346853U,
  0x3c6978593dcb77faU, 0xbd8d0f44be68b01aU, 0xbe86ead73c8a756dU, 0x3e3e7b21bd53849eU,
  0xbe8ec3f3be5cfb90U, 0xbe86470d3de2f7b7U, 0x3ec2a0cdbe14ca22U, 0x3eba52073e4108e5U,
  0xbe94f670bd3c81c9U, 0x3d02c158bdc9cfbaU, 0xbe61c164bb80e8fcU, 0x3986285c3eb2105bU,
  0x3ee62f1c3e3837abU, 0xbe4d019fbd9b2412U, 0x3d84023c3da86421U, 0x3ddd412a3d74d4c3U,
  0x3d231dd73dabc5e6U, 0x3e4580b1be2c984eU, 0x3e2469fa3d885714U, 0x3c91296bbe2f3805U,
  0xbd142d8bbaa2855eU, 0x3d9ab0dbbe2a8881U, 0x3e04040d3d91216fU, 0x3cf53a443e075c9aU,
  0x3d8d2794be51deb9U, 0x3e900680be09e151U, 0x3d90b733bd1bdd11U, 0xbc8594e8bda9f14fU,
  0xbda57d55be651e9fU, 0xbe2378863d5338d5U, 0x3d1f6ae5be4a9864U, 0x3d3212d53cf787efU,
  0xbecb1e45be5c73dcU, 0xbbd03a093a850febU, 0x3e3936e2bdf5dca3U, 0xbf0a6f483d350752U,
  0x3d0917103d24a752U, 0x3d6d1c43be8829c6U, 0xbdd4d8073de26bdaU, 0xbe27f0373d00f17eU,
  0xbd05a055be8b5923U, 0x3c8eabc7be17a933U, 0xbd43105abe040998U, 0xbe62978bbda93b75U,
  0xbe5d431cbcef4257U, 0x3d610887bd8e0655U, 0xbd5d6947bddf8a95U, 0x3e4e63b2bd2c16c7U,
  0x3d1deed3be812b86U, 0xbe4d034a3d4d24d3U, 0x3e20e724be121e8aU, 0xbc225b9dbeadce82U,
  0xbeab3727bda22946U, 0xbe33bee8bd40b298U, 0x3ea41d7a3e7e3c18U, 0x3ddf3f883e8d4ccdU,
  0xbee22922be169db6U, 0xbecdc96ebe15adb6U, 0xbe5af3a9be8e42b3U, 0xbebe47b03e5def71U,
  0xbd4a0c7abe2a61e4U, 0xbe2b8622bd9d9b5fU, 0xbe382992be34ccc2U, 0x3ea0b305bd24315fU,
  0x3f0fe2e73e188c33U, 0x3e55b795bde28cdcU, 0xbdb112a93c94e445U, 0x3e4e846d3ba015baU,
  0xbda049dabe40661cU, 0x3e9bf8c4bdb3b749U, 0xbd9b565e3de5a219U, 0x3dd8dca9bd92c193U,
  0xbdd65066be3bdc4dU, 0x3e03c0f4be05c93aU, 0xbce3c2aebdbbd14cU, 0x3d4635d13e74035dU,
  0xbd50dd7c3de49c6dU, 0xbe0c38f43dee4febU, 0x3ce6afdcbc4bad6aU, 0x3e3bc7ccbd11e21cU,
  0xbd933911be1c73b9U, 0xbdc0631bbd51f731U, 0x3d8060263c83a4c4U, 0xbc9cc881bdbe5e57U,
  0xbefae041be88ac0eU, 0x3e125ce5be5b39c1U, 0xbcb60f64be1a244cU, 0xbd347f9abd030cb2U,
  0xbec4516ebd729a4bU, 0x3ea14dfcbd00d8f5U, 0x3df9012abc8aa34eU, 0x3beac8e33ee255ecU,
  0xbda6a51d3b055119U, 0x3d6b4146bdf3cc92U, 0x3de04207be650452U, 0xbea64fb33dbc4bd6U,
  0xbdec0ac2bdea1008U, 0xbe8812a4be37a399U, 0x3bc16684bc302410U, 0xbd320276bc9faf6aU,
  0xbf0730b5bf025156U, 0x3eb6fc52bd33733cU, 0x3d93b0babe0fae07U, 0x3c5683afbe90f3fdU,
  0xbf074928bdad580eU, 0x3edb283a3e4c3fb7U, 0x3e61f8d23dedf5f9U, 0x3d167d023ecc8ac3U,
  0x3e1b1c3d3d23c9d8U, 0xbdcdba4dbcd76488U, 0x3deed9fb3e05001fU, 0x3e04c63c3e488f5fU,
  0xbdc2a554be991956U, 0xbddac5a4bf02dabeU, 0x3de9fd87bc1dccf6U, 0xbd8e01cb3dcd41b9U,
  0x3db3daa7bde3cc08U, 0xbdca3a00bd91669fU, 0xbd9d6612be700c35U, 0xbdbdaef03e811293U,
  0x3de03d683d7f3a2fU, 0xbe21b8c0bd37c064U, 0x3d9e184e3e19d6b9U, 0x3d8f22fd3d8118efU,
  0xbd94f815be183197U, 0x3d681dbabdc0fad4U, 0x3d7e451cbc9e2048U, 0xbe8a94bebcc03756U,
  0xbe8237d7bdb9a032U, 0xbd6eca123bd3fa5eU, 0xbd7e38e5bdd2ee49U, 0xbd8578213e3254ffU,
  0x3d32c280be98f237U, 0xbe2ef712be18f3b5U, 0xbe7ca9c0be2c24d8U, 0xbe387d8e3e6cfb38U,
  0x3d4dd695bd7e3b4dU, 0x3e3e67db3d5326c2U, 0xbe4d567cbc694473U, 0x3e0fd90f3e88e70aU,
  0xbd1992623d2f0b6eU, 0xbddb97c23e072747U, 0xbd38e6bd3c8579b7U, 0xbe06d5733cf8e639U,
  0xbe801f7ebe25cc52U, 0x3dd127e8be812045U, 0x3e6c6dcbbdb75143U, 0xbeb9aaa53de4d0adU,
  0xbd2a04993da7b134U, 0xbda126163d87d7a2U, 0xbe6213debe69e267U, 0xbe05f1b33e9657acU,
  0xbc98ddbbbbf96f74U, 0xbc8d006abd469330U, 0x3caf8a03bd28dbeaU, 0xbdecff583c1fd8bbU,
  0x3e136266bdc7b318U, 0x3dcffcc1be4cb112U, 0xbdb5c42b3c14a7b6U, 0xbf0468c93dc85d16U,
  0xbef7103cbdbe052fU, 0xbe1d9e033dd1f63eU, 0xbdb75816be0c774eU, 0xbe81f91fbdd366daU,
  0x3e5336d03dc74f26U, 0xbdc1a6ff3dcc0ab2U, 0xbc482715bd87b214U, 0xbe01d85bbd0de275U,
  0x3d60ac703c291d1aU, 0x3cb844f6bdf448feU, 0x3e35e758bc3485d0U, 0xbb180b763d85d3abU,
  0xbd847c02bdeb8a7bU, 0x3e54aeaf3cbaa6dcU, 0xbd0c85af3c4ba6c1U, 0x3c4a9595bdbf8ecaU,
  0x3ce47a973dab2df2U, 0xbe02bcf53d0f7935U, 0xbe0bf89f3d8fa999U, 0xbe0f9b1abe30379cU,
  0x3e5d35943b448eaaU, 0x3d02b79e3df111aaU, 0xbdcb6a2e3c6eb11fU, 0xbdb9b86fbe0d969dU,
  0x3e2735333e0548a2U, 0xbe0fd3763e1d77c0U, 0xbdbdf3c8be998f1aU, 0xbe862349be88fb86U,
  0xbe4d71e8bda9533bU, 0x3dcbebd3bc34f269U, 0xbd7e0adf3e248a46U, 0xbc79f35fbdc0513fU,
  0xbd06d66b3dcb54d5U, 0x3e56fb493d48a161U, 0x3d0813fd3e22f081U, 0xbe54c62f3c854f4aU,
  0x3db2437a3d820c9bU, 0xbd9d83473db09e71U, 0xbe6e2bb03e75e030U, 0xbec910b9beab3f77U,
  0x3d6318383e4ea743U, 0xbe964df43af73147U, 0x3ccd14dbbdbad75aU, 0xbe909138be97982eU,
  0xbeec38eebd4bd486U, 0x3d7d0beb3ca2905fU, 0xbe36a35a3e33a01aU, 0x3dfe00bcbdcad201U,
  0xbe58d12cbd6e8f59U, 0x3ccc4c6ebd47716dU, 0xbdc384603e227af2U, 0x3e6fbb733c8eecbeU,
  0x3d0f6687bdd8545cU, 0xbaac67dc3d24255bU, 0x3e1259573d8261c3U, 0x3cd0db22be5d7695U,
  0x3ca34ae93dbb3396U, 0xbe07518f3da8aad0U, 0xbcc5a5253d57a179U, 0x3e297005be111206U,
  0x3e0cb8f73c32055cU, 0x3d72a6913dc5ca4fU, 0x3d8381dfbde05dc2U, 0xbd247a63bd60f5efU,
  0xbdb129babd8f75caU, 0xbd5a70c3be1c930fU, 0xbd97e8793ce7245bU, 0xbd7e59a3bd415b13U,
  0xbbd0871dbca072bcU, 0x3e6ca2253e27f23eU, 0x3d14cc7e3de9f503U, 0x3dd13bdebed1cc84U,
  0xbbc981d33d3f8984U, 0xbd603dc7bceb8e92U, 0x3e4680013de119baU, 0x3e07f137be47fbd9U,
  0xbd5cec603c46485aU, 0x3cdf03f03cc35662U, 0x3e5443ed3d9ab087U, 0x3d97a7483b6f34e9U,
  0x3dc0362d3cf35625U, 0xbdc19a4e3dce96a3U, 0x3e88e27b3d8a31fdU, 0x3d311d4ebbe76343U,
  0x3de744e83e27e993U, 0x3e91ec963e55b2a7U, 0xbd447d503d9ce8a4U, 0xbcbdfefbbd449b1bU,
  0x3df0c8c63d632b75U, 0xbd80a7623e405445U, 0x3e5433ebbb8bb211U, 0x3da3309cbe96ca49U,
  0x3d6c265e3d757809U, 0x3e276ddd3e30dc15U, 0x3e319f813e0fb755U, 0x3e1ce6b83e4c1a41U,
  0xbe1b076b3e210764U, 0x3de915843db95186U, 0xbd41fcd83e3a8af2U, 0x3ea4e5c0be5cc59bU,
  0xbd346473bdf3d88bU, 0xbec7796e3ca7f744U, 0x3e4473263e5e1a01U, 0xbdbd5f58bea6525cU,
  0xbcb0e933be2c53d6U, 0xbd0dc6c3be81f7ecU, 0xbeb1a732be07ae4dU, 0x3ba75d673dfe95b0U,
  0x3e708179bd9b418bU, 0xbe3ec177be2c3413U, 0xbe3537763da43092U, 0x3e83d7903ea778a6U,
  0x3e2ae268be070ddbU, 0x3df24c27be48664aU, 0x3d8453bbbe0314d8U, 0x3e4a350bbea46c75U,
  0x3c86a7b93e0820b7U, 0x3e139007be4a1a13U, 0xbe9f6c813e955d54U, 0xbe2457873e37846bU,
  0xbe104301bd10d31bU, 0xbe87c69abe06b18fU, 0x3e526629be3aff33U, 0xbe2836bcbe724bebU,
  0x3d7af5dcbe8d734cU, 0xbcdb5fe33d734c03U, 0xbe3c6471bdfe9061U, 0x3ea9c4f4bdff3810U,
  0xbd7f4443beb47780U, 0xbd9a07183e6f8f01U, 0xbe41f87abe4dee7cU, 0xbd97c0ccbde4c2edU,
  0xbe3645e53e4780e9U, 0x3df6a3933c319da8U, 0xbebd0161be72c33aU, 0xbe70e0c03da7f453U,
  0x3ce5a99ebd5563adU, 0xbeebfc293d9f52f8U, 0x3e66d950bd695a8fU, 0x3cf7253f3dfb661fU,
  0xbecacd2dbe6f0f57U, 0x3e238fbbbe20fffeU, 0x3e04962cbdb8464cU, 0xbede9d2fbe8b1a67U,
  0x3dea5170bda11d02U, 0xbeccd9003da3079bU, 0xbdaa6d6d3cd8b646U, 0xbc962afc3d2b06a7U,
  0x3d76cda0bdb2cbf1U, 0x3c0d547a3c2f5d81U, 0xbd80d29c3cea78b1U, 0xbd29e0b83d1e590bU,
  0xbd86b8ef3d0c8673U, 0x3d2c880bbc411172U, 0xbc8160893c7c0d6aU, 0xbbece53b3c98149bU,
  0x3cb91ab9bdf3acbbU, 0xba2822263d31770fU, 0x3c1123473d25fea1U, 0x3c8bf3f5be2485fcU,
  0x3ca8a440bca30831U, 0xbdaceacd3cdd6415U, 0xbd4ee98cbd2ff9adU, 0xbcb3adf93bfda787U,
  0xbc18c224bdb70b67U, 0xbc889921bdb3e186U, 0xbd5e2ddc3d71e386U, 0xbd8d1f6cbd773d00U,
  0xbd71bd5f3c0d0bdfU, 0x3dbf5796bcb59b90U, 0xbe12ff37bda2eab6U, 0xbd86f08cbd43704eU,
  0xbcff1538bd2db05fU, 0xbd6624a3bd0e2dbfU, 0x3d73fb7fbd9361f0U, 0x3b7ce1a4be048321U,
  0xbd8258e8bdb714c7U, 0xbd8afd20bd2fc69dU, 0x3e30db263e1f499bU, 0x3d91eec83ddc98c5U,
  0x3e1048d53dcd5d22U, 0x3dd75d2f3db2e69dU, 0x3db46cacbddced28U, 0x3deb0e87bd99a40cU,
  0xbe62b2b43dce2fa3U, 0x3d87113ebbf9a193U, 0xbe188c3dbd309737U, 0xbe04c3dfbd6e782eU,
  0xbcd2f918bec0ce8eU, 0xbe0640463d63d690U, 0x3e13c7dfbd4f6e45U, 0xbd5b7d143eb8fabdU,
  0x3cecae233dcddfe7U, 0x3e864f2bbd43af3cU, 0xbb250f983e110790U, 0xbce79f87bdc2577dU,
  0x3e13a77bbe48fc81U, 0x3ddae213be115358U, 0x3e6a264dbeb89776U, 0xbe2925773dc0b754U,
  0xbe9d579d3dc6229cU, 0x3c7dde513d8611f3U, 0xbdb629793d048054U, 0xbcb79b933e3ed5a5U,
  0xbdaaee863d1b73aaU, 0x3e0940663e2c3554U, 0xbd9ae7bebe13c93aU, 0x3e324842be0c2acfU,
  0xbd8e22e73e14804aU, 0x3d86c0c73dfbbc7dU, 0xbe6538bebdc61e25U, 0xbdca65e63e79bd4dU,
  0x3d602327be417bb0U, 0x3dff03de3d76c923U, 0x3df88009be68622aU, 0xbca966d5be3f8e97U,
  0xbe753ab3bde80da6U, 0xbd47dad33d6fd746U, 0x3d6bae513dbd7a8fU, 0xbdd227413d8d8f33U,
  0xbe49807bbe3fd932U, 0x3d51c236bb52bdb6U, 0xbe6715b5be076e10U, 0xbe4dafbc3e370c7cU,
  0x3d5ab7a53e396128U, 0xbe1959103e0ec0bcU, 0x3c49b418bc811a29U, 0xbda5d1b83dc48083U,
  0xbe24eb6dbca0c2efU, 0xbe0f9431bd895cbfU, 0xbea629f03dc4a743U, 0xbd8e9d313e5f914dU,
  0x3c914563bd8d6db6U, 0xbe839318be410624U, 0xbdbfed67be055e3dU, 0xbe30947fbe0c3aa2U,
  0xbdbe60d43ea1f79fU, 0xbd0afa1ebe82b0d7U, 0x3c94bffe3dd760faU, 0x3dda63483c809abbU,
  0xbe80ca953d636a29U, 0xbd9848853a7c98a4U, 0x3dc5b1693dc20981U, 0xbd5affcebdfdc12aU,
  0x3ea995693e62cc08U, 0xbba6bf343df19058U, 0x3b8c0a543d799541U, 0x3c431e363e29def6U,
  0xbd88f5d1bd64a956U, 0xbe9a4bb8bcd4dd70U, 0xbcabe598be859048U, 0xbcbd18b13e5b289cU,
  0x3dd89a553e409d81U, 0x3d830eeebba624aaU, 0x3e03fa713dcb3b7fU, 0x3d00116b3f20cb36U,
  0xbe1ae2393cfb807bU, 0xbeaa800f3cd08257U, 0x3e8e9a0dbe2337f9U, 0x3e03a94c3cfb3e55U,
  0x3e9ab17f3e8ed178U, 0xbde82ff13dd46207U, 0xbe55bdf33c0c67cdU, 0x3e726bb2be370b23U,
  0x3cbd1db9bd6be9a2U, 0xbef043a0bea615a8U, 0xbd94036bbdd8e825U, 0xbc9f6dea3dfad395U,
  0x3e6011ed3ef70d52U, 0x3d3ad2243e0c3f16U, 0x3e6398953ca610f2U, 0x3dee862f3e9a8a39U,
  0xbe3d70d03e786b0bU, 0x3e544073bc7904a0U, 0x3d28148c3d5e42c3U, 0xbdbe5eddbd11454dU,
  0x3e3d7a92be70e3a9U, 0x3eb4ac763cfe7f4fU, 0x3eca0980bdb77751U, 0xbd18ce41bdff1bacU,
  0xbdb38e41be1875a4U, 0xbdbbd33a3cf780ebU, 0x3e3c6aa43e4e6331U, 0xbcfbf8ed3e291011U,
  0xbd905f603cabeea5U, 0x3e08368cbd43694dU, 0xbe2e02673d82a017U, 0x3d03e08fbe809559U,
  0x3d2372813e43bda0U, 0xbd5863f8bd265932U, 0xbe487c953da44c24U, 0xbe27c1793e3f83c7U,
  0xbe6dce113db9883bU, 0x3db5a3cabd6d9d3cU, 0x3d0cc3cc3df9d4deU, 0xbdf600143e2af46fU,
  0x3ece381fbe2269ccU, 0x3d000d543e11f227U, 0xbe5d6c60be287f68U, 0x3deb129fbd62480fU,
  0x3bde08b63e981845U, 0xbe1e9bf0bd415329U, 0x3e186b443d84e9d2U, 0xbcc42e953de67c77U,
  0x3e1de70b3d2c57faU, 0x3db099f7be2457e3U, 0xbe2c2956bd7b5ddfU, 0xbd3f31753d98ef10U,
  0xbebe0d083d17d7beU, 0x3e8a39ecbe712e23U, 0xbc553bb73d01c5a1U, 0x3e06a2e13e629ea8U,
  0xbe424c4d3d2d60e7U, 0xbdac5732bbc76faeU, 0x3ec11a6b3ea7798eU, 0x3ddc4e473e0af01dU,
  0xbe9176c33ed9d2f9U, 0x3df9653b3e402c96U, 0x3cb3ecd93e3c3676U, 0x3e6550cb3d949f4eU,
  0x3d70108fbc1c072fU, 0x3dc80138bdd544b0U, 0x3cd8bfb9be6ac552U, 0xbcf861563da160eaU,
  0x3e83a6573e87b2f2U, 0x3d83a8c93d7d84a4U, 0x3e3c1673bdeb24f6U, 0x3e45fe1d3e203f65U,
  0xbe5dc0293da79d41U, 0x3d53065fbd918be6U, 0xbe53b56f3e93ad9bU, 0x3e9415003b8cf636U,
  0xba98158bbe45ced0U, 0x3d8174de3e1ce062U, 0x3c28aec63dec79ddU, 0x3d8ad3ac3e4b486dU,
  0x3d5c50463d920d48U, 0xbd59d858bd3ae683U, 0xbe2e40cfbd6e445aU, 0x3d65ff503d848148U,
  0xbe0ec3b6be50da75U, 0x3e4f1ba0bda4f65eU, 0x3e4e717cbe352a25U, 0xba5e83d63c1f788bU,
  0xba9372f7bd23d6c3U, 0xbddecabfbe4fa7a2U, 0x3e8e65b13ea6a25cU, 0x3e6b270e3d8826e2U,
  0xbecda223be999bb4U, 0xbc56e71b3daa8134U, 0xbde02368be8f36a6U, 0x3ccfb71bbd4d9cf2U,
  0x3dfd28673e03a909U, 0xbd9d8f4a3dd857a5U, 0xbe36c4da3dec221cU, 0x3d0964813dd5b8d7U,
  0xbee26992be4f81b0U, 0xbda8375bbe116ba2U, 0xbb98a79dbeafb322U, 0xbdc2453cbd69da38U,
  0xbbf83998bd4244dcU, 0x3d81064d3e4057a4U, 0xbe3e33f4bd9a42e9U, 0x3dbbd7413e584d97U,
  0x3de60f03be7e0914U, 0x3e42786b3ba3618fU, 0xbe2c7a09be596d30U, 0xbea008413ae64e34U,
  0xbd5a668fbe08b737U, 0xbeae11593e45b60eU, 0x3e2744043dd13d01U, 0x3e4478e53e141755U,
  0x3e38db1abcec9ab7U, 0x3e2b77c73c754f3dU, 0xbe5a5c06bdaaf39dU, 0xbc42a2ea3e342acdU,
  0x3d9800c63ca2936fU, 0x3d332968bc9207c6U, 0xbc26fd9dbde69b55U, 0xbe23ae71bcd5babdU,
  0x3da9ea843dfa1875U, 0x3da0c42b3dfdc185U, 0x3d11cb4dbe066029U, 0xbc8d6ec23e66475eU,
  0x3e6403ab3e431a9dU, 0x3bbd438b3ba688edU, 0xbdb8e9793e0ef983U, 0x3d07676dbe1bc918U,
  0xbcd31b283e2ee608U, 0x3cee5b163d549fc8U, 0xbe157f5dbd3ac028U, 0xbe8c8aca3c8a6828U,
  0x3e84b19d3de011daU, 0xbd5793643d105179U, 0x3ba9506dbd19d610U, 0xbacd76873bfea4f3U,
  0xbd031873bdafce97U, 0x3ce0970a3e2f4053U, 0x3c31105bbd2e78deU, 0x3dbcb0ccbe3253baU,
  0xbdc7eb623e0dff3bU, 0xbd0aad1a3d94f10eU, 0xbda275fb3d37884dU, 0x3e017fc33d45e3e2U,
  0xbe4e90223e832b7eU, 0x3d2ea2d4bde8e0c3U, 0x3ed9e9c43e1c654fU, 0x3da21cfdbd038b9cU,
  0x3e87f4733dd4ad6eU, 0x3d0c5bb2bd8f5c4fU, 0x3dc238c43e1c88dbU, 0xbe2113a3bd84b857U,
  0x3c27f538bcef3e70U, 0xbe77d785bd7fcc86U, 0x3e81e6ae3d80bac1U, 0x3ea2956fbe7dd4d2U,
  0xbe319f493d8d778fU, 0x39f27a1fbe7c4660U, 0x3dd31374be88f3adU, 0x3e0ee7863c91cbc0U,
  0x3dd9544b3c9dbd8fU, 0x3e273a2abd9e3325U, 0x3e3a7d813d3986d7U, 0x3e3bb2bb3de13f59U,
  0x3e2fa8b0bca6ba1cU, 0xbd9e394abcce5570U, 0x3b828c813e204078U, 0x3e2d76ec3d8028c5U,
  0x3e2df06abe60f148U, 0x3df77a96bdc75250U, 0xbd55e58cbe29b572U, 0xbde2f4b1bdd2376eU,
  0x3df30076bd158d22U, 0x3dbed9843d359a27U, 0x3dd68771bd30f782U, 0x3c9f81503ca2aa24U,
  0x3cd317a4bbb185b1U, 0x3db21bb4bdd7feabU, 0xbe4f720cbe1279a9U, 0x3d2e90d43db53aebU,
  0x3d1ebbdf3dfb080eU, 0x3da4b41a3da71a4cU, 0xbd9819babdc2772eU, 0xbdf982383e10ca8aU,
  0x39c9eeb23da6f137U, 0x3e10bb2cbdea61b0U, 0x3e3fdcd73e2084baU, 0x3d9acbe3bd809cbcU,
  0x3db7bd923d8cfc6dU, 0xbe23e1ea3cb16678U, 0x3e75726fbcbf1614U, 0x3e7b42cebd87645aU,
  0x3ec142d23cee6d35U, 0x3e0af3cd3de85b76U, 0x3e88863f3e0fc402U, 0xbc5ba8f23d87608dU,
  0x3e90d6ed3e09f625U, 0x3e007ec4bda0e6a3U, 0xbe1e60a7bc5d243cU, 0x3da8ee91be61c364U,
  0x3e2d3ce9be3fe20eU, 0xbde8f1fa3d86747aU, 0x3e0bb5073be3eb01U, 0x3e80e85b3dd13004U,
  0xbd8d4e84be29c539U, 0xbd120ca2be3e92feU, 0xbe1f1a8cbe824ff5U, 0xbdff35b1bdcb027aU,
  0xbda1430fbea1885dU, 0x3e9522dfbe6ac068U, 0x3e864ea13e78fc44U, 0x3d697b813d90ab4aU,
  0x3e6f5251bda66477U, 0xbd831990bdf17d05U, 0x3e4aea10be07fc87U, 0x3e3600263e1e5f42U,
  0xbd1849143d81111dU, 0xbde3d9bf3e401ca0U, 0x3e20cc3e3d817074U, 0xbd64dac7bde1cfe9U,
  0x3d17d9a43d4bbb50U, 0x3e5c3062be2378b4U, 0xbe2aa1a9be8e2095U, 0x3ccf19bcbda3604dU,
  0x3e966534bcdc2009U, 0x3e021b19bd7f1464U, 0x3e1cd2763e2002f6U, 0xbc47d097bdbddec1U,
  0x3dee040a3dbcd2ecU, 0x3e050e823df5afb3U, 0x3d36bac63d2c7227U, 0xbe20c477bd4ccee3U,
  0x3df7a84b3d9e453bU, 0xbe0f913d3d3a63c9U, 0x3e201d6b3e7f2bafU, 0x3ddd4219be68e825U,
  0xbd7e74563e8606f1U, 0x3e16dc38be131356U, 0x3d49a1003e8235c4U, 0xbcfa61bcbc1d26d9U,
  0x3e50486abbac3cd8U, 0x3d1deef2b91ce492U, 0x3ef4d09dbe20c548U, 0xbd95a682bcbf56c4U,
  0x3e4c0b673dde380aU, 0xbe820e1e3e560d21U, 0xbe33c8f83e257a54U, 0xbd315fde3e00a9ccU,
  0xbd9182bb3cf6c6d1U, 0x3d93a8113d250f5cU, 0x3c147fe1be5c1475U, 0x3d24960d3e093ee0U,
  0xbd29b93abc0d6611U, 0xbbb8de7d3d70ddc2U, 0x3f0b628dbdaa1904U, 0x3d47019bbe416adfU,
  0xbe8661013dec4c40U, 0xbe032477be13a04aU, 0xbe743a723e25e0c4U, 0xbd7336983ddc2865U,
  0xbd2818053df96f59U, 0x3d5870f63df98fa3U, 0x3e4b6b89be8a46d7U, 0x3ccbae843d8a9552U,
  0x3ddfac553f0fcd55U, 0x3d5f4586be35e096U, 0x3c8f662b3c2060b0U, 0x3da2421e3e5d0874U,
  0xbe01b7953d872110U, 0xbd48c350be3c2ba3U, 0x3e88dbd8be3bf9d3U, 0x3d9dbc54be52d62cU,
  0x3e8140743dbd8481U, 0x3ba78a3b3e6b5a46U, 0x3e481440bd384000U, 0x3dd60ab03e4d226eU,
  0xbd1a410e3ba9f7b1U, 0xbdbcb2dfbd058cd8U, 0xbe21b530bed2afafU, 0xbde555b63e7c95e6U,
  0x3d4563a23f07eb74U, 0xbc3fd65d3c866913U, 0x3d6028743eae2693U, 0xbe65ff6b3e286f5fU,
  0x3bdad4023e0a4be2U, 0x3d0f52113e23ba21U, 0x3e5651293d52a5beU, 0x3dbe15583e3e0969U,
  0x3e9b74f2be737287U, 0x3e7d09693d661306U, 0x3e64edf8bdc784abU, 0xbe6d1f223ee3c4ccU,
  0x3e6ca29c3e9a7363U, 0xbe08092d3c97751aU, 0xbc9cbfc5be8aa8c9U, 0x3d97b99fbe0f9300U,
  0xbedf0c56bed743c1U, 0xbb8667aebd98fd42U, 0x3e36185b3df3868cU, 0x3bff3f65be9da74aU,
  0xbe796ec23cfccd8cU, 0x3e75b85c3cbe93e3U, 0xbee7ba943de816e9U, 0x3e2db9b03dd3422eU,
  0x3d8597d73e63bd32U, 0xbe7d6ed13d894d84U, 0xbe41b4a3bdb1ad81U, 0xbcd2bd123e0c3957U,
  0x3cc863ff3dd7b045U, 0xbdedc477bddd6d64U, 0x3d07293abcea8b24U, 0x3df257a4bc38bc77U,
  0x3d2dd671bc800d61U, 0xbd5d0d0cba3d43a7U, 0x3c74330f3da4c385U, 0x3e3d851a3e6e673fU,
  0x3d6bfc47bba8d8adU, 0x3c879a8a3cd5735dU, 0x3e5263ae3e0fcb5eU, 0x3ceee8e5bdc0d6a7U,
  0x3dda63df3d962674U, 0x3dfba1303e5a8962U, 0xbddfe524be383663U, 0xbe12ee873e55ffacU,
  0xbc188a4c3ceff0edU, 0x3d9402443e0d0bdcU, 0xbe737c21bdfa7cccU, 0xbe70470a3dcf864aU,
  0xbd6152c93e24649aU, 0xbe1b10a6bde46a12U, 0x3db39404bd1c5e9dU, 0x3e25fa563e4e5a50U,
  0xbdcc52983e536ba1U, 0xbdad02fe3ddb9d30U, 0x3e571af63e454bf5U, 0x3e73b3c6bdb7e249U,
  0xbb12c1983d2365d4U, 0xbc1a93b6be02018cU, 0x3e59e7613e77fc7cU, 0xbe2f45cf3d4c5d29U,
  0x3e066285bd45ddeeU, 0x3df0f2283d0fd061U, 0x3d9b2a0fbc07861eU, 0x3d89df72be33babfU,
  0x3e2e3dcc3e5dceebU, 0x3d59e22d3de12079U, 0x3e420251bea2d24bU, 0x3e78f0d9bd96042dU,
  0x3d94b0c53e48671cU, 0x3e6a2a8ebde6c4d0U, 0x3e55ff2bbe6e1f35U, 0xbe1910593d673231U,
  0x3e3ca8693da2d13eU, 0xbb98a9693e70958fU, 0xbdb066033ea35f6dU, 0x3dc34b7abe344574U,
  0xbd3aec29bd9e4766U, 0x3d9e244e3ca95a0aU, 0xbe2fbd46bda8bdb5U, 0xbd3a97a33d98757eU,
  0x3e26a21ebd5b3071U, 0x3d93624a3e0a5f02U, 0x3b1c33603de2eab6U, 0xbe6ee60c3c470c23U,
  0xbde33894bc8be633U, 0x3e9b17edbd10082aU, 0xbb6c74fe3e2ba243U, 0xbe3d182bbd1b473bU,
  0xbe223ae4be4c26abU, 0xbdea3ef23dd4da73U, 0xbd693d41bdbf8132U, 0x3e3db5103d60cd3dU,
  0x3c9432583e497d8aU, 0xbd9a07073e398562U, 0xbe9b5cd2bdf9a9eaU, 0x3e91ae58bd862a11U,
  0x3cfbc38dbca5f906U, 0x3e0d530abc549e06U, 0xbdee3a82bd598315U, 0xbeda2e3937e07f1eU,
  0x3e412b8fbe24c762U, 0x3e34241a3e0694b4U, 0x3ccf44dcbd5dde09U, 0xbe169cf83d805ca0U,
  0xbe8ce173be3eaf6fU, 0xbc428cbc3e92c76bU, 0xbdfb67f13e666650U, 0xbdc6f1673dd4963eU,
  0xbeb5c9e63c44c666U, 0x3d2bbe2c3e146a70U, 0x3dcbda59be342d4bU, 0x3dfb2d40bdfb05f6U,
  0x3da58dbbbe8a161aU, 0x3db12a6ebc5f81d1U, 0x3d7158703e8dcea1U, 0xbef1c490be17fc3fU,
  0xbc0f9576be8efc03U, 0x3ea633003e2fe855U, 0xbe7a33e53ddd7af1U, 0x3e356ebcbe113e10U,
  0xbdf8cb09be8df94cU, 0x3d295f46bdca9f23U, 0x3df67ea73e071d76U, 0xbd6a49973e0f63b1U,
  0x3deffdc0bdb3064fU, 0x3e5a64a5bddcd51dU, 0xbdf80258be84918aU, 0x3e5be1febd0ef064U,
  0x3e25a815bdb62bd6U, 0xbd79f2103c991126U, 0xbce2024a3db33a8bU, 0x3e6a5a3fbe398288U,
  0x3e88eef83d39084aU, 0xbd409d393d720374U, 0xbe164848bd72455fU, 0x3e0662c4bd089101U,
  0xbba921a23d3b2fb2U, 0xbd553028bdbe98f5U, 0xbe5077b83e76577dU, 0xbe15e741bdd41fd4U,
  0xbd034fa6be2d9dbbU, 0x3e95f8f13de0d5e4U, 0xbcbaca11be4f2968U, 0x3da6d8ecbd674a7aU,
  0xbb6e6160bdbc44dbU, 0x3e05cefe3c879386U, 0x3e6025893e4d6ba9U, 0xbd355b3dbe640c05U,
  0x3d3c2c78be3975faU, 0xbe4b630c3c8c1903U, 0xbeb3ecaf3eb148daU, 0x3dd9ff7f3b982e58U,
  0x3d3e93763db92962U, 0x3d73d87dbcb3049dU, 0x3d5211e93e8283aaU, 0x3c9412193df029c0U,
  0xbe23da28be4f9b5aU, 0x3e5ae3963e93086fU, 0xbe8a67143b4a0bf7U, 0x3da16132bda59df0U,
  0x3e4dac83be155153U, 0xbc379fad3d75be57U, 0xbe8e287b3cee75d1U, 0xbed7d979be6d30c2U,
  0x3ea4fe1bbe845be1U, 0xbe1c17563d2c593fU, 0xbd9ec7e0bdf00e69U, 0xbd388cd93d9f3060U,
  0x3c2fd414be4c7383U, 0xbb09f7bdbdafc276U, 0xbe15e2383dee0390U, 0x3d7913903e761cc1U,
  0x3e115fd43cafbab2U, 0xbd442d403cc3cab5U, 0xbe52346fbcbf012dU, 0x3e17f51f3cb9044fU,
  0xbe0de7ddbddddbffU, 0x3e3685fd3e1a0813U, 0x3e211e5bbdb5af62U, 0xbdc3111e3d22d20cU,
  0x3d728071bdb0e294U, 0x3e2248db3e12177eU, 0xbddaa1c9be2e295aU, 0xbd84a5653c4e2c3bU,
  0xbd779ceabd9d1818U, 0x3df8d8633e0840ebU, 0xbe385ba53e02c012U, 0x3b46540fbdc48d13U,
  0xbe8c18883e1db26bU, 0x3e6fa9903db99d8aU, 0xbe5a8855be26c4e3U, 0x3df620c03e003d36U,
  0x3d49f67b3dc59b14U, 0xbd12c7573d79527dU, 0x3d2070d1beab328dU, 0xbc1bcb593e0d2a6cU,
  0x3e008e39bcecc581U, 0x3d69f18c3e177eddU, 0xbd959a49ba7abb36U, 0xbda491dcbd965663U,
  0xbe9b16dabce5cb6cU, 0xbded3b47be49ff2dU, 0xbeb10d6c3eb17ae3U, 0xbd5b7b7bbde0b599U,
  0xbe45d8663dfc5c97U, 0x3e4b438e3e013e3eU, 0xbd4277a8be1ea434U, 0x3e9bbdb3bce59977U,
  0xbe06108ebdd297f7U, 0xbdd245313b93385fU, 0x3e06a2e23cf2af2aU, 0xbe1b6875bea82153U,
  0x3e55a266be9aa383U, 0x3d0b2e8f3db8f03aU, 0xbe43bbd13cb97065U, 0xbba548ffbe5619dcU,
  0xbe857755bd30b0beU, 0xbe773d6e3d84f1a8U, 0xbd8b52833e947a3fU, 0xbdcb0561bd99a8faU,
  0x3d97963ebc8d1139U, 0xbce37caf3e6bb0eeU, 0xbdc58a3ebe35567eU, 0xbe285b0cbda1bf62U,
  0x3d9c8758bdd8ec7bU, 0x3e04437a3c9d405fU, 0xbda66e493d4ca0daU, 0xbd1ee64ebe23c075U,
  0x3d0a3b2ebdefbfe9U, 0xbd478e5b3e2923b8U, 0x3dcceb983d6f4844U, 0x3c6ecea33e5b5358U,
  0xbc8772cbbd163f70U, 0xbe7ff46bbd52f504U, 0xbe4db511bd83ec18U, 0x3e4c519dbda3f67dU,
  0xbd7556373dd3beb4U, 0x3dd445a03e71d009U, 0xbc41b2efbcae57cbU, 0xbe8ba4dbbc3e95fcU,
  0x3ca4d2b8be3013a5U, 0x3cf46ed93e4b727bU, 0x3c5e679a3dddd620U, 0xbd6bf7163eb1561bU,
  0xbd14ab563e59f791U, 0x3ce401243e22ba66U, 0xbc47d3273d12786eU, 0x3e051bf33e50b3c1U,
  0x3e8eecb53d66e8cdU, 0xbe23b0d6bd8ee51eU, 0xbe0b7f0e3db2a244U, 0x3e3769bdbe321ab2U,
  0x3d440fe23e23b2a9U, 0xbdb747ca3e78d9a3U, 0xbd4205c9be46769fU, 0xbcf2b07bbe48b8b1U,
  0x3e383f243e229f08U, 0x3cca39e2bdfdac03U, 0x3b8ed404bd19a181U, 0x3ee8c4fb3dead850U,
  0xbd1aa93bbd201799U, 0x3deed8c2bd8bd2ceU, 0x3df527f23e093967U, 0xbe3d750fbe8825efU,
  0x3df67635bd04a413U, 0x3d9a5a36be2fceacU, 0xbd8cc5a53e83ea29U, 0xbe135e1f3e080ff5U,
  0xbe7c3321be126f6cU, 0xbd5d2c0e3e094534U, 0x3e024bbdbe770f62U, 0xbcb109bfbd964220U,
  0x3b9451533e59691cU, 0x3dd082323dfe6216U, 0x3e3c36d73dc9400bU, 0x3c82935fbca9833aU,
  0x3de283653b75f211U, 0xbeabcda4bbbcb4bbU, 0x3e2252adbec7418fU, 0xbd227744bce6a21fU,
  0xbe920eeb3d945b21U, 0xbdd5b9a13e2a2396U, 0xbde67933bd543af1U, 0x3e3873e33e2e413aU,
  0x3dded9ce3d79f86fU, 0x3dcd9a45be61ec1bU, 0x3e659aec3e2a6ee8U, 0x3e9e26debe4ce964U,
  0x3c8d5c163e0a5a81U, 0x3d864598bd1ac9fdU, 0xbc0992e63da56dcaU, 0x3db1d0eebe8f9bb2U,
  0xbe18dbc7be036ce2U, 0x3ede8ca83d973880U, 0x3de7c2d73d8a8187U, 0xbdbde45fbe9ef3e9U,
  0x3d9577a2be0fbe9fU, 0x3e490e72beb78cceU, 0xbdb29e9fbe56ae40U, 0x3c538a2e3de0743aU,
  0xbe039d3fbe2d99a7U, 0x3e3fdbff3e2bcadbU, 0xbda552a13e582e1cU, 0x3d0755693d622114U,
  0xbe9cbd26bc5a9773U, 0xbcf8872c3e3fd279U, 0xbe493b153e4ef877U, 0xbe213c82be60b26aU,
  0x3d89a1bfbda35f01U, 0x3ddfe7a03d066a2eU, 0xbe405638bd82cd51U, 0x3daf8947bd5daea6U,
  0x3e43f574bd811493U, 0xbe2f66063e64fe2fU, 0x3dba193dbe307676U, 0x3b0586c6be49d1beU,
  0x3e523bd2bdb6e496U, 0xbe5a300ebe87bbdbU, 0x3bbce75c3eac4466U, 0x3e7f2e62bd2d3f24U,
  0xbd474b87bdf31a62U, 0xbdb80fd6ba87710eU, 0xbe1cc46dbe7193a3U, 0xbbf0d65fbe30d091U,
  0xbe1bfff7bd9a3a2cU, 0xbd4319033e054e26U, 0xbeabb94ebe08cc3aU, 0x3e324a2d3db85b43U,
  0x3ec566783dbbb40eU, 0x3d66d8993db58888U, 0x3e22b112be3a7ee4U, 0x3d177c16be8d14f2U,
  0xbd924da23e3e53c6U, 0xbdbf5383bea8e6d1U, 0x3ec646303e9ada5dU, 0x3e020e5b3cd9bf60U,
  0x3d441d6cbdb98608U, 0xbd85fc72be3c2a1dU, 0xbe526f153cd70de8U, 0x3e0d6311be545ce2U,
  0xbd84b0c7bd99a103U, 0xbd6997a1bd4d12b0U, 0x3cc0c60ebe237f57U, 0x3e2f38313c1e6b66U,
  0x3da777c23e7a487bU, 0xbd83f1c8bdeade7eU, 0x3ad0c1fe3d84d564U, 0x3d23a634bd88de07U,
  0x3e2f9448bd213032U, 0xbe0aa830bda75a19U, 0xbdadb076bd9924f7U, 0xbb0cf7aa3e503913U,
  0xbda101773e4c06d3U, 0x3e6b37443d3b7ee3U, 0x3cc9c7dc3ddfcebfU, 0x3e83fefc3ebd64deU,
  0xbcf3b0c5bd8381c1U, 0xbcc069b33dc84772U, 0x3e3c938fbd23e5faU, 0x3e3b2c2abde154abU,
  0x3daaffed3ea7b189U, 0xbe080973bca48293U, 0x3d3a63ac3da11416U, 0x3d802466bd197a30U,
  0xbbf7f4153e153af8U, 0x3dcb1b313eaa408aU, 0xbd47f8f63db61491U, 0x3cfacdabbd8045ccU,
  0xbe4a01873e6a1f1eU, 0x3e0b19cc3e0f3c97U, 0x3cbfcb10bca98654U, 0x3e59bb6d3e29d0fbU,
  0xbd922c04bd2ebbc6U, 0x3e25f78abd49dc52U, 0xbe73e5093d405f66U, 0x3dadbe853d119bb8U,
  0xbdb913c7bd84faabU, 0x3d74d498bd56a2cbU, 0x3e13dab73bb8940eU, 0xbe4e0ffebd86a60bU,
  0xbdc69fd1bdd3c2f3U, 0x398f2ae73e6a9ca6U, 0xbc704c1d3dadc818U, 0xbd48a01ebd7e3145U,
  0x3e0107ca3e9cfb38U, 0xbe0f109c3c4dde7dU, 0x3e211488be32068aU, 0x3cc5beaa3debf7f1U,
  0x3e0867623c3ba609U, 0x3e0560d8bdc4aabcU, 0x3e50ed423cf18019U, 0xbe150ab6be9d4900U,
  0xbcfb413a3de02fdaU, 0xbe132b26bd61ea8aU, 0xbe79a62a3c8323e3U, 0xbd782d9c3e82b2f5U,
  0x3d9c5d353d6fd22cU, 0x3e60f8c93e11c9d8U, 0x3c4b78c9be0eab8aU, 0x3eb563febe832364U,
  0x3e5b54203deec2c4U, 0xbe34f748bd0fc990U, 0x3c16474ebd0e0e09U, 0xbe9e53a03e8ce0dbU,
  0x3d54a41cbe0aae9aU, 0x3e6994ed3ceb8602U, 0x3d91afc73e420d02U, 0xbee89a413d9d8d9dU,
  0xbe892c0fbe62dcfeU, 0xbd16e82bbe64e287U, 0xbde9d5243dd39fe7U, 0x3ccec56f3dba8c7aU,
  0xbc0c3d2e3d189a45U, 0x3e8c64fa3e073b15U, 0x3c8b3826be0e6e2fU, 0x3df2bef5bd2a9ee4U,
  0xbe2a54d3bbd282cbU, 0x3c52f6b9bd795e39U, 0xbc45c2e1bdb8f69dU, 0xbc824732bdaecdecU,
  0x3e0c2717bd904a15U, 0x3d9b7a00be508ceaU, 0x3db0c7c63d64d2daU, 0xbe921f303e2021eaU,
  0xbe4facbbbec16befU, 0x3ddeabb43ce4f154U, 0xbe5e4bb7be0fb739U, 0x3e19cdba3e6f2298U,
  0x3e070da2bd9dbf8eU, 0xbdcdb4783d2991c9U, 0x3e699807bd078811U, 0xbe5617663e044a6fU,
  0x3e3ee24e3eb643b2U, 0xbe256e8dbcdfe4ffU, 0xbe3f01f63ec4cb69U, 0x3e15edd83ba438e5U,
  0xbd805bd93e913fd7U, 0xbd197f44bcbc6b61U, 0xbde35c293dbb550dU, 0xbdd50fe3bd4351fcU,
  0x3e9e4e503e514b0aU, 0x3d5d439cbe4defc2U, 0xbcf0e5b7bddb5ee5U, 0x3daba488bdbbd129U,
  0xbe41a3bcbd85f4f7U, 0xbea9ef6c3e20c20dU, 0x3e393c9c3d499dbdU, 0xbe1756d83defbab0U,
  0xbe378b653e08d197U, 0x3df68d3d3e3b3ecdU, 0xbdcc50a33d676b86U, 0xbdbd17dfbe5124ffU,
  0x3bdcae6e3dab66f1U, 0x3dc3e69d3daa4728U, 0x3eb93d61be9815c9U, 0xbdfd04e93d45c1beU,
  0xbd174b713e0312bdU, 0xbc8a42033da7f7c2U, 0x3d0fc991bd8ff4c2U, 0x3e724f67bde1696eU,
  0xbe94db29be248aaaU, 0xbda7bd83be3c6f94U, 0xbdd3ae5bbdfb548fU, 0xbe8cff793cae05fcU,
  0x3d311fbc3eaf009dU, 0x3e071b273e2520a1U, 0xbd2b7b39be9c17cdU, 0x3bba742c3ed4a649U,
  0xbd8cf5dfbc8ea617U, 0x3e0acae23e35470dU, 0x3b2fc5dabe356587U, 0x3e2dca923e3abe0dU,
  0x3cb132863e9e1ac0U, 0xbe1fcaa33e7dfb91U, 0xbca6797ebe28a769U, 0x3e98e00dbe649c56U,
  0xbeaa2ca03e14fcb8U, 0xbe6552babe640a57U, 0xbdee57f43d6ed924U, 0xbb10d4a13df0ddceU,
  0xbd4c45b0bc92ac23U, 0x3d87b8043e24df7dU, 0xbc57eed0be45beaeU, 0x3d252e4c3f01781dU,
  0xbe705e263e4d6b46U, 0xbe84575bbc859607U, 0x3e14d0013de1ba73U, 0xbddfeaab3d9a2efcU,
  0x3d15f178beb3d105U, 0xbd7df23b3cca0184U, 0xbe3f0b983dbb546cU, 0xbddc72e83dacf24eU,
  0xbe3579763e01d777U, 0x3e04d3db3d7392dbU, 0x3e3b12113e1db155U, 0xbd9991023cedcdb9U,
  0x3e063ea0beb155baU, 0x3d6978fcbe09a0a1U, 0x3ea7a176bc9a453aU, 0xbe7f5665be29bff2U,
  0xbde4c714be0f49f1U, 0xbd71e494bc514d00U, 0x3d1fa65a3c7543d4U, 0xbe20aaa8be14c483U,
  0xbe94ba853c6d0ec2U, 0xbe41aefebe3948d0U, 0xbe3e118dbddb4da0U, 0xbde160f6be052b99U,
  0x3e66e4553ba012c8U, 0x3c3a99363dc61e2dU, 0xbcc46381bce73d9dU, 0xbdd893a6be429689U,
  0xbd876dd33e60eb94U, 0x3d2344f6be1ce4d9U, 0x39f268893e57b02aU, 0x3e4a03d33dc32a72U,
  0xbe20bdfebe4571cdU, 0xbe494e273dffd352U, 0xbda5b7123e3ffe7dU, 0xb9a4034c3dd9264bU,
  0xbdf8b3943df1763cU, 0xbe0c92aa3df2392aU, 0xbdaaf8263e141ef3U, 0x3cf41c98be17f1a7U,
  0x3d1a13ff3c4f48a9U, 0x3ca759b73e3c6cdcU, 0x3cd0bb44bd24e1e4U, 0xbe1b18d6be0c5679U,
  0xbc00ee8b3e8ab1e7U, 0xbd19144b3e0ada5dU, 0x3d2472afbdbe07a0U, 0xbdee322b3ead7232U,
  0x3df673ecbe20a2e1U, 0xbe5343963e546db9U, 0x3e9dcb433dc726acU, 0xbe2ff908be510906U,
  0x3e99f5a2bd7dbea7U, 0x3e2bb3df3e2cb794U, 0xbea3554b3e430c14U, 0x3dac1644bdbd9729U,
  0xbdf8b429bd822f13U, 0xbe3bdf383c268862U, 0xbde8051d3be5922dU, 0x3d866c9c3e2778d3U,
  0x3e7602d63dd9a921U, 0x3d69624c3dd67887U, 0xbdc926473c3a6f49U, 0xbdb8b306bd2a7942U,
  0x3e1afede3e6df937U, 0x3e0b6ad13e256a6fU, 0xbbad915b3e7a5fb0U, 0x3d8f4f773bfec696U,
  0xbcfac115bcadd270U, 0x3c761fb3bd13d16cU, 0xbce1f455be54a02eU, 0xbe29e7de3e72934bU,
  0x3ebfabf8bc751e8dU, 0x3e461f203e81b3f7U, 0xbe811118be412fa6U, 0x3d17810b3e4b97e5U,
  0xbdca4f25bf0ee138U, 0x3cee70753e3a736bU, 0xbd181b463e05eb84U, 0x3de2be15bced4adbU,
  0x3d94b41bbe043545U, 0xbe9f3e5e3c91e905U, 0x3b914893bd7ba46bU, 0x3e0a3c6b3d79efaaU,
  0x3db4281cbe6f558fU, 0x3d76b6b23c99f459U, 0xbe3e0926bb7431e0U, 0x3dcb29903ea7a4e2U,
  0x3d29a427bd2e9a9aU, 0x3e9e72f13dd40c6bU, 0x3e00332ebd5d9533U, 0xbe364448bda04f0aU,
  0x3e3cf5913c0050edU, 0x3e41b3ac3d9b320bU, 0xbdea4ee23e587c2aU, 0x3e482087bb731a73U,
  0x3e069cb5bcea29c9U, 0xbe2812a63df4287dU, 0xbe4f36d1bdb537beU, 0xbdf9faf6bcddb4e5U,
  0xbde6369abe9e5126U, 0x3dacee7dbe115339U, 0xbcfddfec3e1bd04cU, 0xbe16b7263de5cedaU,
  0x3e27b77abdf855abU, 0x3e8e0e0c3ce8670dU, 0x3d6e5d4d3de271b1U, 0xbe2bb9f93d6ac139U,
  0xbe2cea55bdf7f32cU, 0xbe199cc23e0e5031U, 0x3b920524bc6ca8f5U, 0x3ce805eabea60334U,
  0xbd85668ebddd5511U, 0xbec1a77cbdbbe5c0U, 0xbad2df70bd950f7fU, 0x3d809b6abd0e29daU,
  0xbec8aadc3de049cfU, 0xbdfb04c8bdfe484dU, 0x3c0bef11bd594d6cU, 0xbdd34d10bcd1d255U,
  0x3e4fe4963cb3986bU, 0xbe0d7179bdfc8c9eU, 0x3e8ed46f3b84ec9eU, 0x391d9bfa3e384de7U,
  0x3d9b1a163ea3f4b1U, 0xbda119243e5f0268U, 0x3dfd91313de1151bU, 0xbcbc37903d316ba7U,
  0x3d8469b2be14bf90U, 0x3e17c165bdbc5370U, 0x3e14fabd3db8c36eU, 0x3e08fd5bbc8f342eU,
  0x3e0cece63d07d249U, 0xbda77f31bccafc82U, 0x3e0698ffbd423b2fU, 0xbe0295b0bd0fbe7fU,
  0xbd1343973da535afU, 0x3d8ec887bd45fdd9U, 0xbb564fd5be2dc916U, 0xbe9dd3673d04edb2U,
  0x3e1478663f149227U, 0xbd1f638bbdcf79edU, 0xbd0d9b883e361028U, 0xbe31f69f3e046602U,
  0x3c51c5063e49d667U, 0xb90b042d3d26e4c0U, 0x3e4ffce1bebf20bbU, 0x3e288cd23e0f1f49U,
  0x3d3a4fabbe6909a9U, 0x3e0d89ed3db20709U, 0xbce954a63cc4956bU, 0x3dc1a15e3e8610a6U,
  0x3e48e9303e566561U, 0xbdf490b83c800882U, 0xbea96e853ce4e859U, 0x3d9f3c41bdfd412aU,
  0x3df441aa3e2eb206U, 0xbddf0522bda23a32U, 0x3d40dc163e3263c0U, 0x3d8175a83e92d1fbU,
  0xbeae675a3e8d4f6eU, 0x3e7192ebbd8525feU, 0xbdd96d123d838908U, 0x3d55404d3d0bc243U,
  0xbd3dfff53d7704b9U, 0xbd0d8054bd858877U, 0x3e397c8bbdbc0ef9U, 0xbc652a793e11d654U,
  0xbd974bc93e1f2151U, 0xbdcf3d06bcdee214U, 0xbdfcfc553eab93baU, 0x3e8d1232bdebef59U,
  0xbd513308be98128bU, 0x3be658fc3d56c1a1U, 0x3ce4e7023e21ae28U, 0xbd12ff063b5f1974U,
  0x3de2de6fbdf801b3U, 0xbcdb6d93be0fbf85U, 0xbe4369d93ddfca41U, 0xbe4b46713dcd15adU,
  0xbde1c2e9be72972fU, 0x3dfacabebdba5dd9U, 0x3e672ce9bdb3e947U, 0x3d73ece3bda34839U,
  0xbd9aa651bdc6bd03U, 0xbd82cbc63c6f4260U, 0x3dd0434abd0bc799U, 0xbdc045793e1a49d3U,
  0x3e1f0063bd20c328U, 0xbbea7f52bd95c725U, 0xbb763e723e45b9ecU, 0xbecc4fedbd9232a0U,
  0x3cf6c4583c690df5U, 0xbe85381abde04fd8U, 0xbdae6a0a3d69b230U, 0x3e695d853e020485U,
  0xbcd1592d3e0dcd07U, 0x3e2d43843e5177dfU, 0xbdd3fc65be34f90aU, 0xbd8807b5be02995cU,
  0xbcfc7a593d1e1a04U, 0xbdf6c1043e48f094U, 0x3b6f5bf03e4ba708U, 0xbe469f873ea2504dU,
  0xbd7b206fbc348342U, 0xbd854ea83e8ec287U, 0xbd9ff675be38727aU, 0x3dd90c703ef63697U,
  0x3dd8a3a73e51172aU, 0xbe28d9cd3e32e285U, 0xbd86445dbcb4c393U, 0xbe2f9f453d889f8fU,
  0xbe7499ab3d836119U, 0xbd0e3a62b89e84d4U, 0xbcf06c1a3e353698U, 0xbd3ebc463e2d4fc4U,
  0x3e216be2bd6856a6U, 0x3d6b7ac03e37ea0cU, 0xbea3bf40bd954f88U, 0xbc8f94883cf0395bU,
  0xbe5c17503e6d6c5bU, 0x3d1208263d932d77U, 0x3e5d2daa3f03537fU, 0x3e490adc3e62f3eeU,
  0xbe011ed33df4deb7U, 0x3dd7d45cbe29f54cU, 0x3c31f90cbde7c3b8U, 0xbe18e20cbd8b06f7U,
  0x3dbca204bcaf1bb3U, 0x3cff9702bd16b731U, 0x3e4a6668be84fa0cU, 0x3c8546f33d0eb512U,
  0xbd0a0a73bd49d6edU, 0xbdc8e4b8bd8c9467U, 0xbe3729163dc89127U, 0xbe9f2cd3bd6707cdU,
  0xbeaad13d3d919671U, 0xbd9cfe533e59a96cU, 0x3d41764fbe484939U, 0x3e46020fbe5d4b25U,
  0xbe073a3a3e0d6a72U, 0xbe1e5ad1be089c16U, 0x3e88691d3e78326aU, 0x3ea42128becb7af0U,
  0x3ef6c7c33e488818U, 0xbc6574923e1746d4U, 0xbeab8c9d3d277b68U, 0x3d2bf4ab3e6a66f7U,
  0x3db0b6e6be8a7a86U, 0xbe0763f23cd653e7U, 0x3ba9223abe119601U, 0xbe55664ebd809a88U,
  0xbcd0f0cc3ea47184U, 0x3dfc33b73e16866cU, 0xbd8d2adbbd1f9723U, 0x3e4f85393bc9ce8dU,
  0xbc53e4bc3e17432aU, 0x3e3610e2bd2a598eU, 0xbead7787bd416b56U, 0x3d301ba33e2d9b16U,
  0x3de06409bea6450eU, 0xbd7d11cbbe0da5bdU, 0x3e3c959fbd667920U, 0xbe1356723ca425eaU,
  0xbc844b2a3dc76924U, 0xbd8efa103c1620ccU, 0xbec5e570be695d6eU, 0x3e52dc423b8ae28bU,
  0x3d9dc7a0be917c18U, 0xbba4a9583e80977bU, 0x3de0e71b3cf186ddU, 0x3d1307373dc6aae7U,
  0x3c919466bdfa148aU, 0x3e4992983b43b4f0U, 0x3dfaf0b4bd252a43U, 0xbc8b4860be80e8ccU,
  0x3dbd618f3e77b743U, 0x3e2ac652bef619d5U, 0x3eaa74f63c04a248U, 0x3c8f49fc3d1bd139U,
  0x3df93cfabca9b1f1U, 0xbd8070793e4f0587U, 0x3e25f61d3e0f9d71U, 0xbe224be03ce8cf91U,
  0xbdb73bc1bdd6bdcdU, 0xbae10cf0be00ec3dU, 0x3c174f793e8c8dacU, 0x3dae8c4cbe18b98aU,
  0xbe3d1228bd09ff7aU, 0x3e062a08bd9a570eU, 0x3d799941be935862U, 0x3e0a68a9bd4aae0bU,
  0x3db836593ea29495U, 0x3db1d7063def823fU, 0x3e7dd81abbd4ce13U, 0xbe196c52bd02bea7U,
  0xbdef3d77be412529U, 0xb9b60c3bbd915aa4U, 0x3e95efae3ea7c73cU, 0xbbe71d5837f52606U,
  0x3dc83a99bdc78e58U, 0xbd58d601be2f3b96U, 0xbe427ab03e74459eU, 0xbedac5d43e2e10afU,
  0x3e24832e3dce1e24U, 0xbdee4e373e2f9df4U, 0xbe1bf415bce0a867U, 0x3e003cf7bd29abe8U,
  0x3db641c53d07be7aU, 0x3e2191f7bd38d26cU, 0x3b009b15be7297eeU, 0xbd86ef62bd03f03fU,
  0xbe25be983de70c06U, 0xbd94779ebe18fa78U, 0xbd8affb8bdeac169U, 0xbcc5b5cbbc858d89U,
  0xbd81d0c3bd6b33f9U, 0x3e09a0fd3d5feac5U, 0x3d8d6367bc083bd9U, 0xbd9401463d54fd2dU,
  0xbe084a5b3e1258b3U, 0x3e371456bca55db4U, 0xbea250b23dddb691U, 0x3db98d6b3de33aafU,
  0x3cb0824dbccaf0e3U, 0x3e1dfb263dc58ee1U, 0x3d97fa023d1b1674U, 0xbd148661be53659bU,
  0xbe50258cbdb6c916U, 0x3cce119ebde58dd5U, 0xbd62b7bebcd5af6cU, 0x3dbf23f03df3f3e5U,
  0x3dc7eed53c58be40U, 0x3e120e9bbc241c90U, 0xbd7c6b02bdd13860U, 0xbde73d823dc074ddU,
  0xbcf8cd35bb707083U, 0xbd402e9d3dfd4ad3U, 0xbe24869ebdf906b8U, 0xbc219d1f3e84935fU,
  0xbe753204be2acf71U, 0xbd3490493e27d139U, 0xbd733bdebe86fd67U, 0x3e42c946be21df13U,
  0xbc30035b3ddef668U, 0x3df7c0acbdb78d61U, 0xbe0aee093e35f4f3U, 0xbd99c0673e2b33eaU,
  0x3db45a623d980979U, 0x3e3259d53d1cd04cU, 0x3d940ea9be06bc19U, 0x3d60e62d3e8ae3a7U,
  0xbda2150c3dc4ce90U, 0xbe8528cb3d7d7f6cU, 0xbc1ee9ecbd1a7aa8U, 0x3d0c7d943e0e7293U,
  0x3dda23cf3e136694U, 0xbd3027db3e160e69U, 0x3d831e103e4dc8edU, 0x3e57b81fbdeb2278U,
  0xbdfe221b3de2ba28U, 0x3e804bf43c8591bdU, 0x3e13be41be464b95U, 0x3e75884abc6f7166U,
  0x3d22a5afbc68d4bcU, 0x3daf90573e454f27U, 0xbd88147cbddf8e32U, 0xbe031026bc441138U,
  0x3daadebd3dde03f5U, 0x3e7659c5bd8cfbbaU, 0xbc0fb2acbded4270U, 0xbb74a9913db9f8cdU,
  0xbdde4326be74fb4bU, 0x3e2f1eb9bcdf4054U, 0xbc086cd6bd6950a3U, 0xbdf4ee5e3e33a407U,
  0xbdd81a57bd9ec03dU, 0x3e57d364bda918b8U, 0xbd70ed6ebe25789bU, 0x3eafa26e3e21fcbcU,
  0x3e353e8ebe18ca48U, 0xbc5325803dbe26aeU, 0x3d20a459be07a88aU, 0x3c9f4af4bed87aafU,
  0xbdf14590bde45363U, 0x3e15b2593d275773U, 0xbd8139c0be8f3d1aU, 0x3d69d87e3e266cf0U,
  0xbe5f0d81be4b4280U, 0xbd5f1958bd6ad16cU, 0x3db2b243bcecaab4U, 0x3dc743c53dea3c1cU,
  0xbe32ed95bc75b0b5U, 0x3e821d6e3e1cdaf2U, 0xbe4f1e113d90914dU, 0x3e48f9e83dda7c8dU,
  0xbea2fa4fbebe7e82U, 0x3dff4bcabe20f13aU, 0xbbbc22553e0a53b3U, 0x3d87e034bef82aa9U,
  0xbc3a37f23c5054abU, 0xbd990f643db01de2U, 0xbe8b60b83c198200U, 0xbd40551e3de7d5a9U,
  0xbd08e8cfbe64e6f5U, 0x3ddddc1bbdee1c7aU, 0xbe1540b2be09e85fU, 0x3dabf2493e542916U,
  0xbe07acf3be5ddd66U, 0xbe3573e3ba8703bbU, 0xbd6e240fbda303c8U, 0xbcb0ae593e3e1c96U,
  0xbdb4bd5d3d8c72c8U, 0xbe301c863e278c5dU, 0x3e457bb03d939445U, 0xbe0163b9bdc37a83U,
  0xbb1bd49d3dc00984U, 0x3e80e7f53e2d62eaU, 0x3d98978abd7747abU, 0x3e311823bdc461e6U,
  0x3cbbf188bd609587U, 0xbe50d087be125677U, 0xbc8966babe7732e0U, 0xbdd57e2e3d11a899U,
  0x3cbe2daf3e2828d0U, 0xbe498ab73e021f6bU, 0x3e0300693deb4ae4U, 0xbd955a77bdb66a98U,
  0xbde59797beb88954U, 0x3d352ded3df1406bU, 0x3e64b13ebeb59cd7U, 0xbcfc1ab03e8e22f4U,
  0x3d9a1047be194300U, 0x3dbe0ff63cc2b983U, 0x3d9e84383e2054f1U, 0x3db3ac6c3d1eee85U,
  0xbdd9a4473ddd6d0fU, 0x3d422da4bcb7f370U, 0x3d72f1483d95f042U, 0x3dc2c49cbd139d6aU,
  0xbb82c8cdbcfd3e05U, 0xbe3118c13d46dd35U, 0x3ddbd84cbc21de00U, 0x3cd2c9bcbd29e439U,
  0x3e446e1b3cc67200U, 0xbd25e4883df7a0dbU, 0x3e38e4333ce772d1U, 0xbd65d4f93ed29ccbU,
  0x3e1bcc233e0decf7U, 0x3e5a23203d458c7eU, 0x3b1dea293d4caae5U, 0x3d7eb537be2c96d4U,
  0x3e5ec178be04f10aU, 0x3e3b19353d5ddc7bU, 0x3d967d04bdfdab9bU, 0xbd5e182e3e852d61U,
  0xbe5d32153db21b3eU, 0x3e853bf4bde7ab41U, 0x3e358aca3e5548d8U, 0xbda392513e2495cbU,
  0xbddd70d6be387faeU, 0xbe1ad31bbcedce68U, 0x3da36c1c3e6df675U, 0x3ae65f75be349306U,
  0x3dfe3b17be249693U, 0x3d85092bbc824444U, 0xba7944193d0c39d7U, 0xbd97f4f33e15ca8cU,
  0x3df40b2bbe247c7aU, 0x3d2fe81c3e49a056U, 0xbe39b7f9be0d82a5U, 0xbe0aa3173d8993fbU,
  0x3e22ccc03dc6cb98U, 0x3de7cb0fbd17911bU, 0xbe5a4ef6bd9e3aacU, 0x3e3ed4f33de71efaU,
  0x3e75eb93be0c3ba4U, 0xbd8368f43e298b8bU, 0xbbb0ad223e917fc7U, 0x3e28382abe2b5256U,
  0x3e4cf5d83da5c78cU, 0x3d8b996a3ddfa6f6U, 0xbcaa99f93de61da3U, 0xbe279e8d3d24a7a3U,
  0x3e31e977bde78bd0U, 0x3cd46b5e3c9e236bU, 0xbdccca363d872978U, 0xbe279b983e6a6f6dU,
  0xbd99ca603bed180eU, 0x3b5ad72a3e9b584cU, 0xbd97c98cbd5b7803U, 0x3e4571bd3ca23895U,
  0x3e8348a5bdb1e859U, 0xbc1b1fce3d3a2df0U, 0xbe96cef53e08b345U, 0xbdf01dfbbe559931U,
  0x3db82cf2beb314f2U, 0xbe79ab753d041677U, 0xbe279b18bcafbf80U, 0xbe22799cbd6b4c3eU,
  0x3e20135ebe2470d7U, 0x3e70424bbdc675d3U, 0xbbb2c02bbd8659afU, 0xbe718d4a3dd5ade7U,
  0x3de909d5be33aa75U, 0x3da3285fbdb9b8ecU, 0x3e19424f3d78a693U, 0x3dbd97e8be10dd64U,
  0x3cfce69c3e7bc83cU, 0x3e22608e3e33b912U, 0xbdcae02fbe33f624U, 0x3e0a90903d19f564U,
  0xbd8c56d63e2023ecU, 0x3e7bb94e3e27e03aU, 0x3de18275bdd689d3U, 0x3e56b832be05b7e8U,
  0xbc6123253e97322eU, 0xbd2120c9be8ff680U, 0x3ea400e63e997cc0U, 0x3d8faaf83cc85c8fU,
  0x3e8db33bbc97b6acU, 0xbd3f91ea3ddbc982U, 0x3e6936693e16429aU, 0xbdfdb9783e621bc2U,
  0x3de5c27f3e6eea57U, 0x3c721582be2436cdU, 0x3e1a03433c235244U, 0x3d2048d43e695536U,
  0xbd3c25e13dd54a0fU, 0x3e2c18ebbd9cc352U, 0xbe19b5fbbe74b103U, 0x3e250ae43e559ac3U,
  0x3df5372cbd57ef22U, 0x3db4da203ce7c934U, 0x3f0d03b2be2095e3U, 0x3e31ed6dbb6b1276U,
  0x3e2328cc3e2b6d02U, 0xbe895940be31713eU, 0x3dacd29d3dff692aU, 0x3dec3b44bc8be0d4U,
  0xbd9ec64bbeb858b9U, 0xbde7219abd7bcaaaU, 0xbf040719bc9ca3ccU, 0xbe1334bebde57f73U,
  0xbe177ac7bc92af85U, 0x3e89aca1bdf36bd8U, 0x3d3152b33cfe05ccU, 0xbe2b17a13d694d52U,
  0xbe4a8b99bde204f2U, 0x3df1055f3df08804U, 0xbdb835473e3290b4U, 0x3deda6c1bda4e789U,
  0x3e3aaaad3ce6ab49U, 0x3d803a763d61674cU, 0xbd3a2866be076c6fU, 0xbd2334353e018947U,
  0x3beb5443bda5439fU, 0xbb9a1acdbd8f6da0U, 0x3dd95e6cbb52c759U, 0xbe0f9170be61e072U,
  0xbd93983c3dcb398dU, 0x3ea317bebd68f502U, 0x3e8bae833c9e7a8fU, 0x3df2c4993dc38cddU,
  0x3dd0f6343ddd1606U, 0x3e30e70ebbe55e28U, 0xbd9b3fa43e40d208U, 0x3d45b2023d8016e7U,
  0x3cdb48f93ad8ba40U, 0x3cf691febdfccc0aU, 0x3e4bc5343cee25c1U, 0xbe83553cbe1af0baU,
  0xbdb8da50be989b80U, 0xbdfef9953c1edbf9U, 0x3d90f7413dcba828U, 0x3e52600fbddb887dU,
  0x3e5fff42be197434U, 0x3e0a0c44bdb43b22U, 0xbbb67d50bdb972f2U, 0xbca5e02a3ca64f17U,
  0xbe1cafaabd6cac9aU, 0xbc82cb70be18ade3U, 0xbe669c503e742d1bU, 0xbdf9aeb9be4f48f1U,
  0xbd127d6a3dee3926U, 0xbc9b361f3d2ec8ebU, 0xbd2312d63dc2fa23U, 0x3d5100ef3ea5f2f8U,
  0xbe629b543c3f6fffU, 0x3da14df53e3834bbU, 0x3db95849be767e46U, 0x3efe98ebbde6266cU,
  0xbca0e3b53ea70c81U, 0xbe7bff8abe2df15cU, 0xbe6868c03da4e580U, 0x3d766537be4fa8e9U,
  0x3baed87c3eb54493U, 0x3d95b9f53d992729U, 0x3ca22715bdc01fafU, 0x3e63fecf3e6709fcU,
  0x3e0e18f0bc1ba7aeU, 0x3c4dfd913d90a075U, 0x3eaa04093e8591b3U, 0xbe74ffeb3e014d4bU,
  0x3d4f6a9abe51cd3fU, 0xbd5d2a233cb8de4bU, 0xbc88f6e4bd62010cU, 0xbe7105543db310d6U,
  0xbc26c4793e44a395U, 0xbe59d534bca44d91U, 0xbe67741d3db1bef4U, 0x3e741f353ba795fbU,
  0x3d19de4f3daceb2eU, 0x3dc90b583d5c38faU, 0x3e9296723d0e7cd4U, 0x3d2920d53c84a75fU,
  0x3d43fe693e023266U, 0x3be1fae5bdb841bbU, 0x3eb8c5113e181d86U, 0x3db15e603dfbf675U,
  0xbdb2c08dbe650f3bU, 0xbe12481e3e0170f6U, 0x3c96638dbdbf6672U, 0xbe2185c1be01bce3U,
  0x3e2fa7623d17ec81U, 0xbd439c92bbaf8996U, 0x3df88bf93c861c82U, 0x3e2410563e1747efU,
  0xbabd52dc3e1eab36U, 0xbd1a6f1bbce534ecU, 0xbd1e31a03d7432d5U, 0xbdc4aa9fbdf1871dU,
  0xbd0759713e4a0ba4U, 0x3e85ec483b77e370U, 0x3e7ebc043e0968feU, 0x3e877e23be0c0379U,
  0xbe1f8ebbbe71aaaeU, 0xbe625154bdcf7f94U, 0xbc6987153d228c9eU, 0x3ecd5a14be0e8dc9U,
  0xbe134c5fbe4f0623U, 0x3e5e4ab93dd2441cU, 0x3d7032ae3cd6aba6U, 0x3df56ca73d25f4d3U,
  0xbc64977b3c7ee2f8U, 0xbe5991f6bbc5ca2bU, 0xbd1098ac3c5366e7U, 0xbd156998bd89436aU,
  0x3dc986013dce0f65U, 0xbdffb07fbeb7781aU, 0x3c9b91f4be11092cU, 0xbdc98d303dc01ee9U,
  0x3dea7bce3e03d41bU, 0xbe91150ebe8d969cU, 0x3e2438d2be55db31U, 0x3e35116a3d4af490U,
  0x3dd5ff353d8811ccU, 0xbe9edd24be8fb27aU, 0xbc3bfee03e2139b5U, 0x3e6095a7bda69173U,
  0x3db450a83e0c5f92U, 0x3d371589be0184afU, 0x3e1f81b23c3c6f05U, 0xbe4ec09fbd896af9U,
  0xbd90dce1bdd75451U, 0xbdd4fb72bd925b7fU, 0x3e196a873d84e0faU, 0x3bc348fabd923a8cU,
  0x3dc64d283e41db8dU, 0x3dc479d43c18a426U, 0xbd5820b4bda19ea6U, 0x3deaacbf3e64865dU,
  0xbe766ebe3d4a5badU, 0x3d7bc71abe49ed81U, 0x3e9c56613e293a7aU, 0x3e85867abeef6546U,
  0x3e8c7e343e3ab00aU, 0x3bb9eec7bdf54d35U, 0xbe5b7795be2fcbf4U, 0x3c35bb7c3dd582d1U,
  0x3d5affcabddeaa7bU, 0x3da7c69a3e961d3fU, 0xbe8965a3be0dd5ceU, 0xbd32e218bda13db0U,
  0x3de62e253ec25298U, 0x3d483f843e024929U, 0x3d6a1525b8c0c023U, 0x3d1382433d1db0adU,
  0xbe08d2473e08b8c7U, 0x3e99389b3d5077f9U, 0xbe342c3dbcc87012U, 0x3c5fa504b6b409c2U,
  0x3c27c1e1b9f66d0fU, 0xbcf6066dbbd355fdU, 0x3d810fb9bc2a147aU, 0x3d323d123db0d5d4U,
  0x3ca1e9313cfd5bf9U, 0x3d2033153bda9e49U, 0xbd1be57dbc38fe4eU, 0x3de22249bc77ef0eU,
  0xbba5cf2f3b37e672U, 0x3a8c335fbbe5324eU, 0x3da1f79a3b1bda25U, 0x3d8328d1bca79a68U,
  0x3c106c353c7453f8U, 0xbd0d2b6c3d7cf153U, 0xbdc6dedfbe26dab7U, 0xbe26aff4bd2453bfU,
  0xbe483ebdbe1e3e4cU, 0xbde867c1be8d879dU, 0xbe0e33cfbe7aac43U, 0xbe682314be354385U,
  0xbe859958be222e43U, 0xbe281e98bddad3b7U, 0xbe459c5dbd939478U, 0xbe52acdbbdac0806U,
  0xbd80409cbe201f67U, 0xbe571ba5be6aed44U, 0xbe360b3dbdbc26a0U, 0xbe8ec4eebe0285c5U,
  0xbe2557d1be54a29cU, 0xbe816368be201165U, 0xbd81bb723db0802dU, 0xbdefd5273de2b047U,
  0x3e16d3883c3ee202U, 0xbe13bb2a3cbaa95aU, 0xbd52209cbe03c5baU, 0xbd2d4f66bde39ff1U,
  0xbe0aca203e5a01fbU, 0x3e37207abea5c11cU, 0xbd5ce137be024787U, 0xbe7db0c53b2e37a2U,
  0x3ba7d1d73e196a91U, 0x3d1a69bbbe843897U, 0x3de802c9bc6039bbU, 0x3d887e7abde9e081U,
  0x3dfee889bd09cf0bU, 0xbdf1e8f53c21e2b1U, 0xbdc08fe5bce71febU, 0xbbff181fbd44c755U,
  0xbbc32a2dbd544896U, 0x3d7ff94ebe5d633dU, 0x3dc3424c3e686d58U, 0xbbbf82f73cc51d3bU,
  0x3e581770bd27d632U, 0xbd042bd83ea7f45dU, 0x3d734bc9bdc03126U, 0xbda0a54cbd282e79U,
  0xbead7bbfbc90282dU, 0x3ec1ffa63ba847efU, 0xbe2edee6be1d6795U, 0x3dcca12cbd79a737U,
  0x3d390879bda75007U, 0x3e7c2fa83e27dbd7U, 0x3d6c8390be357e56U, 0xbe868e693d45d662U,
  0x3e42125cbdf921d6U, 0xbd8ce6babd16c21bU, 0x3e42e8e43e2791b1U, 0x3d7e8c4c3e645c79U,
  0x3e481e6bbd9545deU, 0x3ead056c3d6a151fU, 0xbe4c65f4bccb7caaU, 0x3e35a4d93d2c21caU,
  0xbe935219bd94e21dU, 0x3e9c4b523e2a11e8U, 0xbe511ca7be8dc9a6U, 0x3d8c2f29be4fc957U,
  0x3de29ab4bc88fe16U, 0x3e984d47be356228U, 0x3e90bbc73d11980bU, 0x3d82040d3e12321bU,
  0xbe0136863dae51f0U, 0x3e4f94723e01d268U, 0xbe7ed1abbdbeb027U, 0xbe71c020be8e5ad3U,
  0xbe30e906bc6d9382U, 0xbdaca8e8bed7d592U, 0x3bebbaad3f0de641U, 0xbe2f407b3e738c51U,
  0x3e1ffcf43d205ccaU, 0xbdd322083cc2da99U, 0xbe0a6edcbd5e93cbU, 0xbd78891fbdd880eeU,
  0x3bb22b51be2bddc1U, 0x3e2c5f02be30c791U, 0x3e762bde3ba5ffc2U, 0xbe20c8f83e567b17U,
  0xbd7f96723ddf336eU, 0x3eefb59dbcfb280dU, 0x3dff0b4c3e3e3a30U, 0xbe912c5fbe026783U,
  0x3dcca6ab3e25ac30U, 0x3ed89947be2ce651U, 0x3e7faa493e662daeU, 0xbd0cf8393d9b73f8U,
  0x3d552a533e3f8cfbU, 0xbda250183dde7e39U, 0xbe0231183dde8965U, 0xbe3db79a3d987fa8U,
  0xbe7c02023dc86d0bU, 0x3ca3126abe0911ceU, 0x3e074b163d8f2edbU, 0x3d8e39cebe0ed802U,
  0xbce88ca23dff0f9cU, 0x3e22125abcbc965bU, 0xbe9159183d0583c1U, 0xbe292227bed1e6ccU,
  0xbd064c6cbe0a17a0U, 0xbdb509e1bd99ce36U, 0x3e2531fb3e39a972U, 0xbdb9fe51bce28effU,
  0x3db3a7783df0e971U, 0xbddd99113e46cbceU, 0xbdfbbfce3d638aa5U, 0xbcc0c2963d331065U,
  0x3d3cfa57bbc46235U, 0xbdb933f1be5a5fa3U, 0xbe98757d3b1ba902U, 0xbd9c231c3d2aa75eU,
  0x3d965a71bd2fd2fdU, 0xbe0e4635bd9ac6caU, 0x3e0ac809bdf8f148U, 0x3df397d63dcfb3ceU,
  0x3e7df20abd380754U, 0xbd617efbbe1aa8d2U, 0x3d52c6f23da50e20U, 0xbe043a02bdb6fd14U,
  0x3d1d194fbe35e78aU, 0x3e764063be845755U, 0x3d9a93f53e221c08U, 0xbdbecda8bd2492e9U,
  0x3da5a1113e005e8dU, 0xbeb63e72bd8beb18U, 0xbe0a025fbea0d92eU, 0xbc78b8abbdc9cc28U,
  0x3e3ffcc13de2f741U, 0x3c47a123be28e09eU, 0x3d88f4493dcdcf06U, 0x3ce4d9943c92ad57U,
  0x3e7159a6bd90a46dU, 0xbb206e013dd2abfaU, 0x3d11d236bdb2dcbeU, 0xbe0140e3bda0c0dfU,
  0xbcba1ec9ba3b451cU, 0xbdfa561dbec461a2U, 0xbde21c76be5e4417U, 0xbdb5b22abe6e709cU,
  0xbd31b5d5bc4d746eU, 0xbead4b773db99c35U, 0xbdc70bc1be960594U, 0x3ceda9d43cfcc6bdU,
  0x3dca91d93bebbf78U, 0xbe76ab8f3e21fb03U, 0x3cff41b8bda62c9bU, 0x3d053754bd2221a2U,
  0xbe112e363d49d6e2U, 0x3dd2e290bc506e6aU, 0x3db437633e9703afU, 0xbdcc127c3d6317bcU,
  0x3d3930d03dd21da8U, 0x3da73698be8b832aU, 0xbc136a6ebe445c54U, 0x3d793dcd3d987b6eU,
  0xbd67a1043e52edf1U, 0xbdf0a7433e019c97U, 0xbc999ec6bd7a6900U, 0x3e3ff49c3d4b8918U,
  0x3dbc30133e226187U, 0xbeb8df9a3e1440a9U, 0xbe3720033d7d4447U, 0x3d7bf0b23da271bfU,
  0xbd379c513d964c35U, 0xbdfb74653eaa3c9eU, 0xbd640500bebc9e97U, 0x3e57cca4be061d27U,
  0xbe0691383d8efadeU, 0x3e71364dbd92f859U, 0x3e1072a93c8f63c0U, 0xbd5f4f94be30eed2U,
  0x3d5649bb3e862fcaU, 0xbc30e3b13e83bf49U, 0x3dc977f83d9ac1b0U, 0xbd458516bdda4516U,
  0x3e55bfdf3e3dea87U, 0xbd88cf963d9cdd76U, 0xbe4c48443dd5935dU, 0xbc868971bdbf7745U,
  0x3d511e2c3d112130U, 0xbdefb5dd3df663a5U, 0xbbbaf7aabe5427aaU, 0x3da46ed3bdf249e3U,
  0x3d6ee5ae3d9f8b6bU, 0x3e258a123e52ea9cU, 0x3d09e3c6be32c787U, 0xbd374917be62fb1bU,
  0x3d1bd1f33edc8938U, 0x3e8e19643da8177bU, 0x3e43d85bbdb75995U, 0xbddf50283df98f84U,
  0x3e6b803a3d9d6052U, 0xbe2d14753d8ac916U, 0xbec089cc3dfdf984U, 0xbdf0651fbc05bc31U,
  0x3d0e36af3d8c7213U, 0xbe998608bbe2ae08U, 0xbd9a78f6bc971036U, 0xbd2b93f3bdb1d65aU,
  0xbcf8dcd5be7cfc9aU, 0x3f28a147bea3b7f1U, 0x3d0e4b5cbb98818bU, 0xbe57e2ce3df4fe97U,
  0x3ddd17023eab020fU, 0x3ba7ac243df46907U, 0xbe34e04b3da97496U, 0x3dd0780d3e978d45U,
  0xbe6a66b13db959a9U, 0x3bb3fd9fbccaf221U, 0xbeec4d04be110681U, 0x3c2da5e1bf04a1d2U,
  0x3c02cb13bdb624f5U, 0xbe517915be879c69U, 0xbd3376bdbe782392U, 0x3e117365becbb7f3U,
  0xbe24fb12bd1867f4U, 0x3cc88b9ebd3c2ccaU, 0xbd8acc3e3ddb46f8U, 0xbe962a9bbd9a40b7U,
  0xbdff82aebe602e31U, 0x3cb24a8abde8bd2eU, 0x3df1227b3ddaaee0U, 0xbd864abe3e8e6bebU,
  0xbe2eebafbeac1145U, 0x3eaacf9d3e3f2beeU, 0xbee814893e0af12dU, 0xbe9dd7a2bee829f5U,
  0x3d534890bec62106U, 0x3de82839bd59d5f7U, 0xbe8347c93dcd5d38U, 0xbec3a5c9bc992252U,
  0xbc53f89fbcd90481U, 0xbd19dd6f3e858553U, 0xbe4324103da80ecaU, 0xbefee3d73df0324fU,
  0xbe5425623da21c4bU, 0x3d10321cbe812f4dU, 0x3cf542473dbf7bb9U, 0xbe244a0ebec7daa2U,
  0xbeb274e6beb90aadU, 0x3e76c3b93e3da360U, 0x3d04daf9be8cbe69U, 0x3d0402debe5ee0eeU,
  0x3dcf5544be9786baU, 0x3d5141ebbee1fa7eU, 0xbde2ab8d3e35e3a4U, 0xbecf6bb73d996902U,
  0xbe3e87403e8cbaaaU, 0x3e89ac563dad6defU, 0xbde671153dc034c1U, 0xbe94e887bbcebdd3U,
  0xbe866cb73eaa933cU, 0xbd6adce5be9f6a1bU, 0x3e0c61743d7603a7U, 0x3dc88106be05accfU,
  0xbe031510bd184035U, 0x3d7921b73e08d69bU, 0x3d8ea4babe2cb0e5U, 0xbc15e190bda48d7eU,
  0x3e142d7b3d0a3871U, 0x3b72adfabec719edU, 0xbe2b66293e1ab04eU, 0x3decb2eebd1b4938U,
  0x3c8186393d13b612U, 0x3d1a3596bd2761d7U, 0xbda243bc3d409fccU, 0x3dab30ae3d76384bU,
  0xbe0469a8bd1ec173U, 0x3eb92b24be8637acU, 0xbe6d62b73defe971U, 0xbdcc4dccbde06d04U,
  0xbd324826bd85014dU, 0x3e915b1d3c1b6a04U, 0xbe22cc19bdfbf16eU, 0xbe8706c33d6383d6U,
  0xbc81d0e2be6f9f9fU, 0x3eb8e810bdd7105fU, 0x3d3e1298bca4473bU, 0x3e3ea80b3ca2f630U,
  0xbc95fb1d3d68592eU, 0xbd7a1c8b3e116fbbU, 0xbe5280fcbdd685abU, 0x3def73abbd9b65efU,
  0xbe24ce2e3c9c2f41U, 0x3e0ee37dbea0125eU, 0xbe025bea3d4315e5U, 0x3df84e55bda382b4U,
  0xbe0de605be4933d6U, 0x3dc3c527bde4d755U, 0xbe6d5c6b3deb60feU, 0xbcbd90fd3d3739afU,
  0xbe2dc515bc7682a7U, 0x3da84a1abe313ee7U, 0x3d26d8a8bed31057U, 0x3dec3386be9649deU,
  0x3da81dfb3d8bdddaU, 0x3e9fd6c0bdaf1a64U, 0xbe82b86fba9f94d0U, 0x3dbc76953d899864U,
  0xbeae5f293dde2319U, 0xbe02f74cba21bc23U, 0x3db23a61bce45833U, 0xbe1672e5bee30ec9U,
  0xbe1d3c933d935870U, 0x3d6b45cebebf8425U, 0x3e1899ee3d3ef979U, 0xbc35e8edbee0386fU,
  0xbe64f5df3e16908fU, 0xbdb9669e39ce0358U, 0x3e4905fd3d5226ddU, 0xbf062a0f3e80e034U,
  0x3e0aacbbbd1fe3dcU, 0xbe63b8433e582711U, 0x3d3017f93e0b59caU, 0xbeb35a64bd03839fU,
  0x3ca99c1cbeb0476cU, 0xbd8a056e3b5106bcU, 0xbc4bd748bd605389U, 0xbd641e0bbe374829U,
  0x3c7a1a09bde4204bU, 0x3d577523bd9eebb3U, 0x3e79cca1bdf21db9U, 0x398ba411bf0e948dU,
  0x3e40577b3ca51df9U, 0x3e518ba93d8e8337U, 0x3e3146603daa541aU, 0xbee071443d1ba7caU,
  0xbd464a7a3e238b72U, 0xbe4e69aabe450804U, 0xbd12c2e8bd93645fU, 0xbe35a190bcf43c71U,
  0xbe0682a9be037e9fU, 0x3df5612c3e214e87U, 0x3c5408d7bd7fa7b0U, 0x3e4e33393c51c81cU,
  0x3dedc008bdab2ea4U, 0x3d79d113be5d69a2U, 0x3e2d0bb73cee906fU, 0xbe27d35ebf1916eaU,
  0x3e9cebc13e494da6U, 0xbe2ec1ff3d0ce1afU, 0x3e18fa1d3e418ac8U, 0xbe43d469be2fbe58U,
  0x3d7e4691bc8fe3fcU, 0x3d84bcc5bddc0d58U, 0xbddadd0a3e321534U, 0x3d0e7e413c04ada5U,
  0xbdad9161be61cd42U, 0xbd521f283e499f88U, 0x3cdd24763de185e7U, 0x3e066fbabe2b925dU,
  0xbe655f9bbe00cf8bU, 0x3dd6d6283ec75c4eU, 0xbd684ac1be664301U, 0x3d97a08abdb22432U,
  0x3e8e45e5be3a3067U, 0xbca9390bbcf9a36cU, 0x3c92fbd0bda44940U, 0xbd65ee97be6691e6U,
  0xbe11dc74bd35054dU, 0xbcb7ee21be3d4f90U, 0xbd8d883abdfdb95dU, 0x3e418637bbdd2caeU,
  0xbe5244223cd85893U, 0x3dcfa1273bc9f420U, 0x3cd96e143dbd3d43U, 0x3af3e51cbcb17c20U,
  0xbbcc3e44bde1fad2U, 0xbddbd0f73e043900U, 0x3e664e08bdf5ff97U, 0xbc0171b7bdcb72abU,
  0x3cae087fbe16096cU, 0x3de5cf983dd8594dU, 0xbd6f9a59bea69025U, 0x3e233649be02f9daU,
  0x3c89e7843dd49994U, 0xbe3fcb853d83c7d8U, 0x3e7e5e50bad56c19U, 0xbd134c193df7078dU,
  0xbdda2d393e1ea816U, 0xbd471cc5bebc1f8eU, 0xbd23d9003dc30171U, 0x3ccf11f4bce46538U,
  0x3e6d4d9b3d7a3859U, 0x3e0e8401bd8e526eU, 0xbd90c6b43d8e00b6U, 0x3d902c963cc6ce88U,
  0x3db108d93d105e4dU, 0x3d6acdbabe3a6286U, 0x3e1137ecbea16c26U, 0x3bfacf6bbe276eb7U,
  0xbe6202503e20bb44U, 0x3e036217be3aadd2U, 0xbd14ac4fbd8fadf8U, 0xbe11cc7dbd766664U,
  0xbf0b44513e9bfc1aU, 0xbe609497be72bf4eU, 0x3de83e8f3baea31eU, 0x3cabb0c83e1e857bU,
  0xbcb9acf5be76dcbcU, 0x3dcdba953e931095U, 0xbde2fc7a3b87910eU, 0xbc9c3069be322930U,
  0x3dbb5e91bd38f2afU, 0x3db435ae3d3fc9bbU, 0xbc82a1ecbe46effaU, 0x3d97a519be11cd91U,
  0xbd8a88033c21f40cU, 0xbd74817a3d9837a8U, 0xbdc88ec43b26192eU, 0xbd7f5f0f3e2d0839U,
  0x3dcc30873e9a13c4U, 0x3d76e8e0bda57c66U, 0xbe62f79a3d93903aU, 0x3db12c8f3e0de7baU,
  0x3d04c78e3d8372a8U, 0xbd4b3eb43d81f76fU, 0xbd3f2ef4be2ab9a9U, 0xbdc6567bbd8c14e5U,
  0x3c1684e4bd56853aU, 0xbd6d51cfbe8019feU, 0xbe74d1833de0ad46U, 0x3daaac2dbe105134U,
  0x3e6de1d73dd514a5U, 0x3d95a4c3bd893a57U, 0x3d8c9a61bdf7148aU, 0xbdd4dc93be556a6bU,
  0x3d1095833e3bfb71U, 0xbeaaae55be03a234U, 0xbdc2f7c83be73684U, 0x3e06118ebc8b28d6U,
  0x3c8b40d53dccc756U, 0x3d9eab63bddde922U, 0xbea2f7b9bc05a566U, 0xbcb6916cbd203069U,
  0x3d535e11be8287c7U, 0x3c802ce13bf7cce5U, 0xbdd351053de2f165U, 0xbcceec22bea0e364U,
  0x3dcd50eb3d5ca1adU, 0x3ec92c74bd58755aU, 0xbe5d9acb3ded1181U, 0x3d52c48c3e0bec34U,
  0x3de7a7b13c99772fU, 0xbc5c003b3d5e7c10U, 0x3e6f3cefbe6a7775U, 0xbea23a8b3e4f2f20U,
  0xbd647018be4a86daU, 0x3e4523c0be938c20U, 0xbe55f5c73dabd38eU, 0xbdb29bc33dd8410bU,
  0x3d9e3f96bdd36872U, 0x3e8ffb803e8ab224U, 0xbe8e21293e8af27bU, 0xbe5370f43e31be7bU,
  0x3e8b40d43e1a74b0U, 0xbb78e49dbdb7b066U, 0xbe4580acbe2abea6U, 0xbdb7ae01bd571157U,
  0xbe4464a13d6fc511U, 0x3e57656cbd9312c4U, 0x3ef0e011be011c3fU, 0xbe6d116ebe0ad22aU,
  0xbeb11566beaf6cd4U, 0x3e19e7173c10301cU, 0xbe463a4dbd4efb91U, 0xbdf536fdbec9dd6fU,
  0xbbd2b9be3ddd8db1U, 0x3e14e97dbc122c30U, 0xbdaa0fd13ee10958U, 0xbf08a10c3ea9631aU,
  0xbd41e03b3e3ef227U, 0xbe68096c3da61ee7U, 0xbea9f021bebb9056U, 0xbeb34852bc8b91bbU,
  0xbe8d7a323ee01ca8U, 0x3eb1c77b3d835178U, 0x3d2213743d5c2e0fU, 0x3d47edf8bf269c55U,
  0xbed0aa4cbe6c5e35U, 0x3ed3a04abc3e05c3U, 0xbee68cb1bafc02d7U, 0xbe887555becb59d2U,
  0x3e3c2e59be8b9606U, 0xbd85b1fd3cf32e2dU, 0x3e5d43bebe02353aU, 0xbe1055993d019f03U,
  0xbe3caa0ebdee3f38U, 0x3f3a4112bd366397U, 0xbe56d6a5be33d366U, 0xbe98996abda4b455U,
  0xbe9458133d408654U, 0x3e555be4bdcb695cU, 0xbe17236c3d146de6U, 0x3d26e48bbdb591caU,
  0x3deaf466bd17afebU, 0xbde303273d4386c3U, 0xbe1865b13d835828U, 0xbdce36c03d83137eU,
  0xbe088bb7bd8eaba6U, 0x3da01932be0c9f97U, 0xbe36056cbd4a426dU, 0xbd5fccd73d8e6ee6U,
  0xbd7fae7bbd4d939eU, 0x3e49ba2c3d946de9U, 0xbe0be417be138a09U, 0xbd4eca0dbdd59438U,
  0x3cb3f52f3d7ab8aeU, 0xbcc205fc3d84c05dU, 0x3e2e37d8be599233U, 0xbde8a172be0e92f0U,
  0xbe360c42be8e4c2eU, 0x3ed223663dd71600U, 0xbeb3dda3bdaa9d19U, 0x3da2abd0bcbd5e0bU,
  0xbca43d64be7cc983U, 0x3dba7e7c3e8e451dU, 0x3e8a15b8bcb219a4U, 0xbee6a7a43d42b2cfU,
  0xbd499bb6bd9b1374U, 0xbe94a85cbd480fecU, 0xbe821662be6e5202U, 0xbc04d82ebd14acf6U,
  0xbe9120553d655680U, 0x3df75399be24f8aaU, 0x3ea461c8be5cdd89U, 0xbe6f9f2c3c3d41fbU,
  0x3e379511bd2e22e0U, 0x3e8ad9a23db7d053U, 0xbdba733fbcec2b74U, 0xbe2ec3b9be2a91daU,
  0x3e04decfbe671381U, 0x3e318badbe9b9e3eU, 0xbaaee53b3e55de94U, 0x3d8bf7963e1a32c8U,
  0xbea689b73eb4f6afU, 0xbcc0660ebdb9e64eU, 0x3e070b2dbed45279U, 0x3d215e2abe752283U,
  0xbe3b25d73f08fbadU, 0x3eb37937bd4570d6U, 0xbd236b9c3c9f09dfU, 0x3cc69389bd4d42f0U,
  0x3e0f5ad5bdf515f3U, 0xbcba7580be37052fU, 0x3c338b85bd90bf22U, 0xbd5e41a8bdaf6a19U,
  0x3e06cc0cbd8aad5fU, 0x3cc90a2b3d68fcdeU, 0xbda94bfe3e87c541U, 0xbe0e2a58bc3421c5U,
  0x3e19774abd8e853aU, 0xbe25bca43e4baa24U, 0xbda786c73d9b4c6eU, 0xbd1059d5bd0cae11U,
  0xbd571d01be021893U, 0xbd180571bd8101e0U, 0x3e6197893db8ddefU, 0x3df220d3bd93af32U,
  0xbe40a443bc8f6cfcU, 0x3d1453f8bc877ba6U, 0x3cbdf958be1ab419U, 0xbc02582a3d3a3373U,
  0x3cbc227b3e4176a7U, 0xbe655dbd3df4dcc9U, 0xbc39e1b43da2a426U, 0xbda893073d1c6805U,
  0x3c6a1c29be41d32dU, 0x3bb2430cbd6501adU, 0x3dd6874ebdc3e87dU, 0xbc3fd732be0ff1beU,
  0x3dedd4ba3c8d8015U, 0xbd9bdc543e0ac28aU, 0xbd7759bcbdcf60faU, 0x3e3a8de2be91200aU,
  0xbcc98a1a3d97bdbdU, 0xbdba36b7be372c86U, 0x3dc0d0b33daf458dU, 0x3d2bd7913c8e7085U,
  0xbda53802bccfc035U, 0xbe86f2c23edf5161U, 0x3e11c89bbdb0b19cU, 0x3d9903533b94a60aU,
  0xbe5f362dbdc4d07bU, 0xbd7251e9be1529a5U, 0x3d59c3393e55115aU, 0xbd56ff57bb9924c7U,
  0x3cf93c4b3d4aa357U, 0x3d2fbffcbd3f47ffU, 0xbe11b3043dbc7dd2U, 0x3e2b9dd83dd11b2aU,
  0x3dd56c23bd5b2bbcU, 0xbd9660f1bdcccc5bU, 0xbbeee236bcded21bU, 0xbd696e03bd19f94bU,
  0x3d75e9dd3bc7f138U, 0xbd9439c2bd2d8b4bU, 0x3e330b03be69d63bU, 0x3dc9058fbdd0b8d4U,
  0xbe939ccf3e17c7fdU, 0xbe1f8923be38402bU, 0x3e2033ce3e43875bU, 0x3ddd947ebd63054cU,
  0x3dffbc813e30cdf7U, 0xbe759d2dbcc8fc47U, 0xbeeec889bd6d2079U, 0xbd640d4ebe01b7f1U,
  0xbd33dfc7bca1518cU, 0xbe3e3f20be427ac9U, 0x3dc9a0313de58979U, 0x3e114a9fbddd9afaU,
  0xbcc345023e370fbeU, 0xbd841d28bd83480aU, 0xbd9857c6bd927d3bU, 0x3c9cb42fbe7486d6U,
  0x3d29ce76bd1386c0U, 0x3e94a82ebef6bac6U, 0x3e6609b53e064769U, 0xbc7c015bbd81591dU,
  0x3daf5f9ebdf74ff5U, 0xbda8ea7a3e1a5eddU, 0xbd886113bc20bc07U, 0x3e0c7a203e84a04fU,
  0x3d838d0fbdf2f878U, 0xbea850dd3eb467faU, 0xbd421e043e189cccU, 0xbd0d89493dac7ae8U,
  0xbdd29d91bdd40dd2U, 0xbe92fff33db03becU, 0xbd44a8473d40e94eU, 0xbdffeda8bda01ed9U,
  0x3e202cfbbd14eb6aU, 0x3e98be4dbda3142bU, 0xbdc840e93da8a66aU, 0xbccffa863d106117U,
  0x3e736f6f3e7090aaU, 0xbed23288bc8385c9U, 0xbdfe7ffbbd1c6ea9U, 0x3d9171bf3e168017U,
  0x3e23263b3e74603aU, 0x3e434d203e535d0cU, 0x3e2254f8bdeadd4eU, 0xbc71f6f5bc8e587eU,
  0xbe98e3983b8a3b9fU, 0x3e5e6d94bee09542U, 0x3db326d43e782bb0U, 0x3d815d93bda6a6d8U,
  0x3d4bbcb93db7496cU, 0xbd7857853be5b90bU, 0x3c35551bbd0cdcd0U, 0x3ccd74023b4ec0f0U,
  0x3d78d59d3e475adfU, 0x3e018aae3e24c9b2U, 0x3e1bf71f3c9ce6cdU, 0x3debab783db5474bU,
  0x3dafaf6dbdd963a4U, 0x3e3d748bbc8a78a5U, 0x3b5bd4303cd6b90eU, 0xbd6b72b6bd8d799bU,
  0xbe834fd83e993af9U, 0xbdb2ceff3e19998dU, 0xbde2f3fd3e14db49U, 0xbc24219b3d696aa5U,
  0x3d548d6d3e9f5ce8U, 0xbcdc581ebcee97faU, 0xbcbd2db63d227617U, 0x3df9390dbd3f2841U,
  0x3e1734b3bdb5d370U, 0xbcda33593e408028U, 0xbe140cfb3d61e4c1U, 0x3d84920fbe81a2acU,
  0x3d9d40d03e099877U, 0x3e39b9f9bcd3f465U, 0x3e91db673e450b33U, 0x3e1be0adbcbd9ea3U,
  0x3de09ac53e7a529dU, 0x3e4a9f64be86e183U, 0x3de6876cbd9f40eaU, 0x3e3508b13d5a5492U,
  0xbe8e99e83dd89054U, 0xbe1f560cbe93862bU, 0xbcf51647bddcedb6U, 0x3dd3ed24bd241ae7U,
  0x3e8c5e5cbe8906e4U, 0xbe72c4eb3c1f13afU, 0x3e4c48823d4aad7bU, 0xbe0dd4c1bd7e9cacU,
  0xbda10e2bbe8e2949U, 0x3ec815c13e0d2131U, 0x3e0c5ca4bdc41c05U, 0xbce6ceaabce2e259U,
  0x3cbf6a713d002e47U, 0xbe28ab50be855351U, 0xbcac56563e7a3fc7U, 0x3c1374c2bc1c2154U,
  0x3d2241943e5d2052U, 0xbde472b63e0ad361U, 0xbd074fa0be622421U, 0x3da526cfbe92657dU,
  0xbb92de1d3e49bbe3U, 0x3d6c420ebb368f3cU, 0x3d84d43bbe09c8e2U, 0xbd0ca4c0bca0d422U,
  0xbd35f1303dce3d81U, 0x3ecf65cbbe6fd3f7U, 0x3da5054bbdd8540eU, 0x3dc8f927be1712fcU,
  0xbd934249bdef3f39U, 0xbdc3fa753d5d0bc1U, 0x3e4dfa8fbd75951dU, 0x3d73f3c1bdb09f90U,
  0xbd98d202bcdb3233U, 0xbecb0174be0826ecU, 0x3e9b4c29bd72e995U, 0x3e2245c0be0be328U,
  0x3ce60936be0d1e5eU, 0xbea2a1933e33d552U, 0xbe1479b3bd51aa11U, 0x3e4bbb3b3d80dec3U,
  0xbd03fbb03d63088fU, 0x3cc48239be9f6576U, 0xbcec2c72bd5fff9eU, 0x3e0585683ea178e4U,
  0x3dfb99d03d51cb56U, 0xbd5ea5d4be543303U, 0xbe2fdf0abd638046U, 0x3e90c00cbeb5e0e4U,
  0x3c4ca10ebdccd321U, 0xbe9a24d9be4762b1U, 0x3e8051d13c2505d1U, 0x3dbd4febbe490210U,
  0x3de32af83ca4e823U, 0x3cc4dbe83ea9b24fU, 0x3e316011bd8e3bdfU, 0x3cf7fa57be01ed87U,
  0x3dba07a8bd76fb67U, 0x3d50cf87bd93c897U, 0xbdf60eb4be1335eaU, 0xbd73c1633dca0e28U,
  0x3da373893d535f3dU, 0xbdab4e96bdf06b61U, 0xbd66accb3e4aff85U, 0x3e0811573dd1fb98U,
  0x3dd30e78bdb03e54U, 0x3d6038013e70edd1U, 0xbdd0c1a2bce018e4U, 0xbe22ee74bd8b311eU,
  0xbc6f9263bc05d0c2U, 0xbd9e7822bd53813aU, 0xbcc91b293d96de95U, 0xbdcc8f79bd3072f2U,
  0x3df367783debab8fU, 0x3d5ee6e83d5a901dU, 0xbd6083ea3de22f06U, 0x3df6ed06bcdfc1d2U,
  0xbcee537d3d161535U, 0x3dca94cf3bf900a2U, 0x3dd124293e168b34U, 0x3e1bc7b33c04d37dU,
  0xbe1647cd3c2120dcU, 0xbd594413bdedcc71U, 0x3e055fabbd9cab68U, 0x3db7d31dbdd1f9d4U,
  0xbbf978b23e2de47dU, 0x3cf650ac3d24b6cfU, 0xbe85e9ebbd8ae2dcU, 0x3e0ea93f3e216d39U,
  0xbcffb0a23d4b9d02U, 0xbce25055bc920aeeU, 0xbd5bf191bd6d1f2fU, 0x3db9bfebbdae2a6aU,
  0x3da02d533ca7191aU, 0xbd226e47be0b4c5aU, 0x3c9bdfd13e0e5f06U, 0xbb9c4dbdbe9177b2U,
  0xbdbebc69ba715e34U, 0x3e7c2cfdbe33e201U, 0x3e27b8d3be34175fU, 0xbd0bc9043e25ec84U,
  0xbd38b4633e2a29f9U, 0xbd628188bd2ca298U, 0xbc3c85ab3d78eceaU, 0x3e2ffd3e3cc42fc5U,
  0x3e696de3bd231fafU, 0xbdac9d84bc5e7ed8U, 0x3d2a4b603e25ef23U, 0x3e4650e63e40b442U,
  0x3de5a3963e08076eU, 0xbd8b2a56bd9c4a13U, 0xbe5194323dd2e7eaU, 0xbe16cbaf3de663e3U,
  0xbd89300bbde7aa78U, 0xbe1731843dd4eb56U, 0x3d61f3043c5ab403U, 0x3e7e8c493e04ddccU,
  0x3d426017be2b14b2U, 0xbea07ddebe29d11dU, 0xbe83b81bbdd796b1U, 0x3d4a0d36bdb33f92U,
  0xbcea09473db99ea1U, 0xbe943d52be6a1c5cU, 0x3e93f82e3e0a4b0fU, 0xbc4363c23dd9dfd2U,
  0x3e27b6fe3d9918faU, 0xbe2894a63e092fe2U, 0x3da927e3bd947dcaU, 0x3e24481d3d8c236cU,
  0x3d5f7cfebe346f52U, 0xbb2fb0aebedeb030U, 0x3ded91c2bda45906U, 0x3e57b82c3e11e38fU,
  0x3e0e83dabe848ffcU, 0xbf17409e3dfe0f25U, 0xbe6796e83e0c024cU, 0x3e41aebbbcafdf15U,
  0xbc22296d3d94470aU, 0xbe7e4f3dbdf7fbfdU, 0x3ea466443a8e0b59U, 0x3d6b6ca43e8623a3U,
  0x3df77ed73d92a359U, 0x3e8d98b23c8bc3b6U, 0xbe7fd0a6bddb8770U, 0x3d0a4c8bbc34f661U,
  0xbc913fa03dd647b8U, 0xbdf23726bd198aaaU, 0x3da2c1053c9c3504U, 0xbc3ccb18bc920508U,
  0x3e3e94bdbe5501a7U, 0x3d10cae5bccc1267U, 0xbdb33707bdf29be4U, 0xbddbe537bb0c7396U,
  0x3df4a3e23e5ed747U, 0x3ec13b8ebe8a8203U, 0xbb95bd513e5fa901U, 0xbd92334fbe71c50bU,
  0xbb1bb9543e456118U, 0x3e194fb2bebaff91U, 0x3dbb6ec93e64a469U, 0x3d28c1063d4dc441U,
  0xbe850214ba997eefU, 0x3e88ef3f3e84c2e5U, 0x3e0d6307be2924adU, 0xbe786866be8a901cU,
  0xbc5ed515bb93fa30U, 0x3e027574bd1ae9d1U, 0xbe259fbabe76d609U, 0xbe03d187bbd82a1aU,
  0xbd084a92bc9132aeU, 0x3e3f0ea53e576849U, 0xbd230ef9be3d00ccU, 0x3da9df2cbdeaf82fU,
  0x3d6bb652bcb2ef09U, 0x3e068cd0bdf15ed6U, 0x3c34eb28bec15cddU, 0xbe3152a9bcc7770fU,
  0xbe92ff73bd2b7647U, 0xbd41c4e93d0331adU, 0xbd059947be83705fU, 0x3d5f8dc83e7ec191U,
  0x3df80af13db26b7bU, 0x3cba923e3d3fc450U, 0xbda53525be381e05U, 0xbd14bf17bcb450e1U,
  0x3d5ab022bdf200a5U, 0xbeafc6e33e85033cU, 0x3e6bcfdabc522d09U, 0x3dd00b573e1a2fd7U,
  0x3e80d5e4be4ccb74U, 0x3ea22b5fbe7b1693U, 0xbda2a59b3e13497cU, 0xbc36ce503e873560U,
  0xbe645cec3d9af85aU, 0xbd6cb7ea3e473cbeU, 0xbe4acac6be82c994U, 0x3d4b56ddbea29fb3U,
  0x3dab5a65bed7048dU, 0x3ec15d323d34b3a0U, 0xbddbf16a3e389bacU, 0x3e683b68beb3e085U,
  0xbd4930bbbe850f22U, 0xbdea8ea33e2fb7e8U, 0xbc8ab08abe223c0eU, 0x3d765d0cbda4c837U,
  0x3deac6e53d5ccc57U, 0x3e79c4543e4794a2U, 0xbd5ff863bde89f6aU, 0xbd8284903c732500U,
  0xbce4c9e13d889c80U, 0x3c7e191ebe8dff2bU, 0x3df290033d5e777eU, 0x3df969e13d8bae63U,
  0xbe11f6f63dd4c9ffU, 0xbd6e5174bdf99aeaU, 0xbdf161cbbc290b56U, 0x3e2782e5be6fe96fU,
  0xbe02814fbe3f6a7eU, 0xbeb3e511bd2c2ffbU, 0x3c7712483dc2c500U, 0x3e7df9d33de295e9U,
  0xbdfeabdbbe7e7675U, 0xbe0e14163e169bf8U, 0xbe898c54bf04301eU, 0x3e14c681be1df6daU,
  0x3ca3f8f43ed735dbU, 0xbe31ec4abd24cde8U, 0x3e173ea53dbc7d8aU, 0x3e63936c3bd47d82U,
  0xbd4890a0bdd37069U, 0x3e8029c3befa79e1U, 0xba781f163e05a5cdU, 0x3e2614243cb16cb5U,
  0x3b9e152bbe02dae3U, 0xbd693644bd94e19aU, 0xbd75486cbdd8c112U, 0x3e1a2ce13e234dd6U,
  0xbde36029beacfb46U, 0xbd9675e23e3e2491U, 0xbe493cb1bea4700fU, 0x3e3c9987bd36706fU,
  0xbc86538d3cbaa617U, 0x3dd2ec54bdb5cab6U, 0xbd0e432f3df2b370U, 0x3e01ca3e3e2013cbU,
  0xbeddbce0bcee9f04U, 0x3e762fa3be03ca07U, 0x3d846fc7bd3a3e26U, 0xbd151e2d3e0228d9U,
  0xbdbcf259bcc8d5dfU, 0xbc8b8235be641392U, 0xbe8bb5f43e05dcfaU, 0x3b1ad33cbdc00e1bU,
  0x3dc7bc9c3df32726U, 0xbd3676a7bdfd67aaU, 0xbe12fee8bc8871b2U, 0xbd83fcfbbde3c52cU,
  0xbdd2c1013e8af64fU, 0xbe11d463bc613f54U, 0x3d60159a3d19fc0fU, 0xbdb5be2b3e204adaU,
  0x3d448855bd293e27U, 0x3e2c4303bcc5c960U, 0x3d6e0a6c3d83f388U, 0xbead55823e48dd6cU,
  0xbd68edc33e663c8aU, 0x3e7a407abf000d7dU, 0xbda4b8b73d6ab9f2U, 0xbd3dc013bc0c5566U,
  0x3deb85bdbe0b17d4U, 0xbce10ca0bd7ef042U, 0x3da6288fbd8c0a14U, 0xbe2b9a2cbdb5464eU,
  0x3df1cad3be43d652U, 0xbda35cd53cd6c5dbU, 0xbcc89c64bdeb9a1aU, 0xbdf24df33db22f66U,
  0x3d09034dbe32f336U, 0x3e8f66c13dcadf5dU, 0x3c9c9e4dbdd563caU, 0xbdd13473be7585dcU,
  0x3d2beeb63e277a09U, 0x3d424be63bc67fcbU, 0x3d27be5f395ebcebU, 0xbd2dd18b3dc6c793U,
  0x3e052538be54c930U, 0x3e15287abd52e701U, 0xbcf8f136bd6c8467U, 0x3cd72e273e10fbccU,
  0xbdea9f083e391b8aU, 0xbe7e6d3f3dc85f4eU, 0xbe30db53bdcbc36dU, 0x3e2486143b213002U,
  0xbdb16632bdcd806dU, 0x3e739fde3d4f45baU, 0x3d0ab47ebc654253U, 0xbdf1b134bb12b6f9U,
  0xbdc9f005bdd00197U, 0xbd9c8a74bcd2411aU, 0x3db833dabca6cd32U, 0x3e185ab73e2ecc18U,
  0xbe0d81873daf0c11U, 0x3b8f23debe80d369U, 0xbe8ab5103ec4883fU, 0x3e633531bd5dbf5eU,
  0x3e2b7eaabde1a358U, 0xbe67960a3e4bcc2dU, 0x3da9f512bdb3dcf3U, 0x3deced67bd776a1eU,
  0x3c08ccb9bd8a40bcU, 0xbd9891e7bdf1c5b3U, 0xbd6f4cddbd1032daU, 0x3e185d603dd64c76U,
  0x3cbb8012bd119f2cU, 0xbe2755713cddefe7U, 0x3e024c3dbe10859bU, 0x3de5f0213e37d315U,
  0x3e836e503d340f20U, 0xbca33a49bed4dde8U, 0xbcaeca2b3e049bd3U, 0x3daae85b3da7fa09U,
  0xbe68431ebda0582dU, 0x3d82d1afbe10ef8cU, 0x3d81e354bd40d5d9U, 0x3d811905bd7cb79cU,
  0x3d931df13dab3ab2U, 0xbca938773cef863bU, 0x3d22cabf3d8d2836U, 0xbdb730d63ded9d6eU,
  0x3d2aee08be88cd96U, 0xbd864ab3bc762d27U, 0x3cd3fec33e281ae9U, 0xbd73bdf53e957cbaU,
  0x3d59da153e15fbd7U, 0xbdc2d0e33e7b2569U, 0xbcc281053df508a9U, 0x3cd57dd73e93738fU,
  0x3e37bc72be5724d3U, 0xbe39de1c3eab7b79U, 0xbe48ec6bbc9e3b57U, 0x3e87e07c3cc40957U,
  0xbde329a1be93e93fU, 0x3e9786e7bd438327U, 0xbd5840023d7e3b25U, 0x3e40e78a3befce3bU,
  0xbd98709fbd7157d0U, 0xbe4c9eefbe784af4U, 0xbca19baebe13b5ebU, 0x3d4b39d8bdc489aaU,
  0x3e66e1d1bd979c44U, 0xbdee53d5bd77238fU, 0x3dfda5693d074282U, 0x3e1fdcc23e096d0cU,
  0x3d4f405cbe6019daU, 0xbe8a83863d30bcc2U, 0xbdbb98df3d4c63abU, 0x3e2977f63d833c01U,
  0x3de423d5be0f97bdU, 0xbc975466be3e9e01U, 0xbb464ee63d94421cU, 0x3b65b1423db4628aU,
  0x3e0e4a2f3e76243dU, 0x3c3cf133be4dbfd6U, 0x3dd5166e3ce53b9aU, 0x3da243fb3e36df01U,
  0xbcf516373e39cbc6U, 0x3d93f9c4be87d82fU, 0xbdd6d6c7bd571342U, 0x3dd3a15a3e3d0edaU,
  0x3d4009babe77063cU, 0xbe478b2abe53073aU, 0xbdf8923cbd96025aU, 0x3e20a42b3e4b5fb7U,
  0xbe04ca7c3d2137d5U, 0xbe632dcdbdc121dbU, 0x3e868dc73db3ba41U, 0xbde516cfbd343a7cU,
  0x3e32a8843e08f629U, 0xbe66eb30be43e32cU, 0x3e1888d7bcfc1c7bU, 0x3da304953d8da72fU,
  0xbd15048e3e2c8680U, 0x3e8bda6b3ca12160U, 0xbdb4b0443e50a191U, 0x3bd8426c3e1ffdd3U,
  0x3dbc63d1bdd52260U, 0xbe31e73a3dc2904aU, 0xbe2bc9683dc55619U, 0xbd854e40bce454ccU,
  0x3d04f170bdb9140dU, 0xbd6cc38f3e23aa79U, 0xbe25c0123e07996aU, 0x3e7485963e247701U,
  0x3bc9b2303c917b34U, 0xbe4ab0db3b8d0559U, 0xbdc2af403d7f81d7U, 0xbe10e6783cb0b25aU,
  0x3aca75ff3ceb078dU, 0x3c4368043e68a12eU, 0x3db1104fbd259fbeU, 0x3dbc409b3d6bf6deU,
  0x3e5b59833dee256aU, 0x3da5eddabdab6c56U, 0xbd75bc153e309a1fU, 0x3dda10f53d4c5139U,
  0xbc8977e8bddd9948U, 0x3d83f01a3dd7c2eaU, 0x3d068b06bde6f704U, 0x3d113b77be466a78U,
  0x3d5edb78be0511f0U, 0xbe2f6b1d3e2e666fU, 0xbd2e9f153cced6fbU, 0x3d4d73763da28210U,
  0xbe10aa133d91a917U, 0xbe0a5d333e06967bU, 0x3d1c80013e168871U, 0x3e320c4c3dabd646U,
